{
  "version": "1.0",
  "truncation": null,
  "padding": null,
  "added_tokens": [
    {
      "id": 0,
      "content": "[PAD]",
      "single_word": false,
      "lstrip": false,
      "rstrip": false,
      "normalized": false,
      "special": true
    },
    {
      "id": 1,
      "content": "[UNK]",
      "single_word": false,
      "lstrip": false,
      "rstrip": false,
      "normalized": false,
      "special": true
    },
    {
      "id": 2,
      "content": "[BOS]",
      "single_word": false,
      "lstrip": false,
      "rstrip": false,
      "normalized": false,
      "special": true
    },
    {
      "id": 3,
      "content": "[EOS]",
      "single_word": false,
      "lstrip": false,
      "rstrip": false,
      "normalized": false,
      "special": true
    }
  ],
  "normalizer": null,
  "pre_tokenizer": {
    "type": "Whitespace"
  },
  "post_processor": null,
  "decoder": null,
  "model": {
    "type": "BPE",
    "dropout": null,
    "unk_token": "[UNK]",
    "continuing_subword_prefix": null,
    "end_of_word_suffix": null,
    "fuse_unk": false,
    "byte_fallback": false,
    "ignore_merges": false,
    "vocab": {
      "[PAD]": 0,
      "[UNK]": 1,
      "[BOS]": 2,
      "[EOS]": 3,
      "!": 4,
      "\"": 5,
      "#": 6,
      "$": 7,
      "&": 8,
      "'": 9,
      "(": 10,
      ")": 11,
      "*": 12,
      "+": 13,
      ",": 14,
      "-": 15,
      ".": 16,
      "/": 17,
      "0": 18,
      "1": 19,
      "2": 20,
      "3": 21,
      "4": 22,
      "5": 23,
      "6": 24,
      "7": 25,
      "8": 26,
      "9": 27,
      ":": 28,
      ";": 29,
      "?": 30,
      "A": 31,
      "B": 32,
      "C": 33,
      "D": 34,
      "E": 35,
      "F": 36,
      "G": 37,
      "H": 38,
      "I": 39,
      "J": 40,
      "K": 41,
      "L": 42,
      "M": 43,
      "N": 44,
      "O": 45,
      "P": 46,
      "Q": 47,
      "R": 48,
      "S": 49,
      "T": 50,
      "U": 51,
      "V": 52,
      "W": 53,
      "X": 54,
      "Y": 55,
      "Z": 56,
      "]": 57,
      "_": 58,
      "`": 59,
      "a": 60,
      "b": 61,
      "c": 62,
      "d": 63,
      "e": 64,
      "f": 65,
      "g": 66,
      "h": 67,
      "i": 68,
      "j": 69,
      "k": 70,
      "l": 71,
      "m": 72,
      "n": 73,
      "o": 74,
      "p": 75,
      "q": 76,
      "r": 77,
      "s": 78,
      "t": 79,
      "u": 80,
      "v": 81,
      "w": 82,
      "x": 83,
      "y": 84,
      "z": 85,
      "|": 86,
      "~": 87,
      "¡": 88,
      "¦": 89,
      "©": 90,
      "«": 91,
      "­": 92,
      "±": 93,
      "³": 94,
      "´": 95,
      "¶": 96,
      "»": 97,
      "Â": 98,
      "Ã": 99,
      "â": 100,
      "œ": 101,
      "Š": 102,
      "˜": 103,
      "“": 104,
      "”": 105,
      "•": 106,
      "‰": 107,
      "‹": 108,
      "€": 109,
      "™": 110,
      "he": 111,
      "an": 112,
      "the": 113,
      "ed": 114,
      "and": 115,
      "to": 116,
      "in": 117,
      "re": 118,
      "wa": 119,
      "ou": 120,
      "it": 121,
      "ha": 122,
      "er": 123,
      "was": 124,
      "om": 125,
      "en": 126,
      "on": 127,
      "ar": 128,
      "The": 129,
      "is": 130,
      "ing": 131,
      "il": 132,
      "sa": 133,
      "id": 134,
      "le": 135,
      "ay": 136,
      "im": 137,
      "lo": 138,
      "al": 139,
      "st": 140,
      "or": 141,
      "her": 142,
      "He": 143,
      "She": 144,
      "ir": 145,
      "th": 146,
      "They": 147,
      "be": 148,
      "ne": 149,
      "ver": 150,
      "hat": 151,
      "ut": 152,
      "se": 153,
      "ke": 154,
      "at": 155,
      "no": 156,
      "ld": 157,
      "ck": 158,
      "ce": 159,
      "am": 160,
      "ve": 161,
      "ri": 162,
      "said": 163,
      "ily": 164,
      "she": 165,
      "pl": 166,
      "pp": 167,
      "ith": 168,
      "of": 169,
      "his": 170,
      "with": 171,
      "ig": 172,
      "ad": 173,
      "Lily": 174,
      "un": 175,
      "so": 176,
      "ked": 177,
      "day": 178,
      "ly": 179,
      "you": 180,
      "very": 181,
      "ome": 182,
      "we": 183,
      "li": 184,
      "that": 185,
      "up": 186,
      "my": 187,
      "go": 188,
      "ow": 189,
      "ant": 190,
      "ch": 191,
      "had": 192,
      "as": 193,
      "es": 194,
      "play": 195,
      "they": 196,
      "for": 197,
      "fe": 198,
      "mom": 199,
      "nd": 200,
      "ould": 201,
      "all": 202,
      "end": 203,
      "happ": 204,
      "bo": 205,
      "ent": 206,
      "ge": 207,
      "itt": 208,
      "want": 209,
      "ok": 210,
      "tim": 211,
      "are": 212,
      "It": 213,
      "out": 214,
      "do": 215,
      "ound": 216,
      "ro": 217,
      "not": 218,
      "ittle": 219,
      "time": 220,
      "ther": 221,
      "there": 222,
      "little": 223,
      "happy": 224,
      "ra": 225,
      "ht": 226,
      "sh": 227,
      "ry": 228,
      "big": 229,
      "sm": 230,
      "but": 231,
      "fri": 232,
      "ake": 233,
      "saw": 234,
      "ys": 235,
      "friend": 236,
      "ter": 237,
      "ack": 238,
      "thing": 239,
      "some": 240,
      "ul": 241,
      ".\"": 242,
      "One": 243,
      "one": 244,
      "ide": 245,
      "On": 246,
      "Tim": 247,
      "ved": 248,
      "ug": 249,
      "Once": 250,
      "were": 251,
      "!\"": 252,
      "ho": 253,
      "him": 254,
      "car": 255,
      "irl": 256,
      "pe": 257,
      "wanted": 258,
      "girl": 259,
      "upon": 260,
      "el": 261,
      "ful": 262,
      "them": 263,
      "Tom": 264,
      "ur": 265,
      "ind": 266,
      "ill": 267,
      "ag": 268,
      "could": 269,
      "their": 270,
      "Ben": 271,
      "did": 272,
      "co": 273,
      "me": 274,
      "smil": 275,
      "ex": 276,
      "mo": 277,
      "hen": 278,
      "have": 279,
      "rom": 280,
      "But": 281,
      "went": 282,
      "hel": 283,
      "ted": 284,
      "can": 285,
      "new": 286,
      "de": 287,
      "od": 288,
      "nam": 289,
      "friends": 290,
      "help": 291,
      "um": 292,
      "hed": 293,
      "ab": 294,
      "fel": 295,
      "way": 296,
      "back": 297,
      "?\"": 298,
      "ain": 299,
      "side": 300,
      "fun": 301,
      "ic": 302,
      "par": 303,
      "man": 304,
      "fo": 305,
      "like": 306,
      "ran": 307,
      "Timmy": 308,
      "too": 309,
      "ght": 310,
      "You": 311,
      "star": 312,
      "named": 313,
      "po": 314,
      "loved": 315,
      "smiled": 316,
      "low": 317,
      "loo": 318,
      "felt": 319,
      "la": 320,
      "sto": 321,
      "asked": 322,
      "around": 323,
      "ard": 324,
      "ick": 325,
      "looked": 326,
      "see": 327,
      "et": 328,
      "own": 329,
      "ame": 330,
      "pr": 331,
      "Mom": 332,
      "ure": 333,
      "would": 334,
      "make": 335,
      "bir": 336,
      "wor": 337,
      "fa": 338,
      "boy": 339,
      "ong": 340,
      "now": 341,
      "other": 342,
      "gr": 343,
      "ll": 344,
      "bird": 345,
      "park": 346,
      "mad": 347,
      "what": 348,
      "op": 349,
      "tre": 350,
      "away": 351,
      "ice": 352,
      "ca": 353,
      "gether": 354,
      "ss": 355,
      "started": 356,
      "oud": 357,
      "made": 358,
      "dd": 359,
      "something": 360,
      ",\"": 361,
      "came": 362,
      "together": 363,
      "ts": 364,
      "ight": 365,
      "ited": 366,
      "says": 367,
      "put": 368,
      "sad": 369,
      "na": 370,
      "got": 371,
      "look": 372,
      "get": 373,
      "exc": 374,
      "from": 375,
      "home": 376,
      "again": 377,
      "scar": 378,
      "mu": 379,
      "if": 380,
      "ach": 381,
      "who": 382,
      "ue": 383,
      "then": 384,
      "dec": 385,
      "good": 386,
      "found": 387,
      "wal": 388,
      "ried": 389,
      "ie": 390,
      "ci": 391,
      "pped": 392,
      "ep": 393,
      "when": 394,
      "king": 395,
      "more": 396,
      "hug": 397,
      "playing": 398,
      "ought": 399,
      "ally": 400,
      "ave": 401,
      "things": 402,
      "excited": 403,
      "by": 404,
      "ru": 405,
      "Sam": 406,
      "ided": 407,
      "liked": 408,
      "decided": 409,
      "every": 410,
      "der": 411,
      "ous": 412,
      "us": 413,
      "spe": 414,
      "ouse": 415,
      "ara": 416,
      "ny": 417,
      "care": 418,
      "use": 419,
      "An": 420,
      "down": 421,
      "than": 422,
      "scared": 423,
      "find": 424,
      "ac": 425,
      "pre": 426,
      "ax": 427,
      "your": 428,
      "take": 429,
      "dog": 430,
      "feel": 431,
      "sha": 432,
      "ways": 433,
      "jo": 434,
      "ate": 435,
      "dad": 436,
      "udd": 437,
      "We": 438,
      "arn": 439,
      "Sara": 440,
      "wo": 441,
      "clo": 442,
      "didn": 443,
      "Max": 444,
      "always": 445,
      "our": 446,
      "Anna": 447,
      "took": 448,
      "bb": 449,
      "ang": 450,
      "here": 451,
      "mommy": 452,
      "about": 453,
      "will": 454,
      "So": 455,
      "qu": 456,
      "ers": 457,
      "ite": 458,
      "know": 459,
      "ma": 460,
      "ise": 461,
      "outside": 462,
      "te": 463,
      "toys": 464,
      "old": 465,
      "tree": 466,
      "ive": 467,
      "ened": 468,
      "thought": 469,
      "learn": 470,
      "fore": 471,
      "wh": 472,
      "ust": 473,
      "ty": 474,
      "speci": 475,
      "special": 476,
      "room": 477,
      "sor": 478,
      "cat": 479,
      "When": 480,
      "laug": 481,
      "knew": 482,
      "Jo": 483,
      "any": 484,
      "ball": 485,
      "udden": 486,
      "never": 487,
      "run": 488,
      "ged": 489,
      "red": 490,
      "bu": 491,
      "Her": 492,
      "fter": 493,
      "ish": 494,
      "pa": 495,
      "come": 496,
      "house": 497,
      "how": 498,
      "Every": 499,
      "toy": 500,
      "br": 501,
      "uddenly": 502,
      "ol": 503,
      "show": 504,
      "ink": 505,
      "much": 506,
      "lf": 507,
      "Jack": 508,
      "rd": 509,
      "sw": 510,
      "dre": 511,
      "bl": 512,
      "cre": 513,
      "ist": 514,
      "able": 515,
      "ven": 516,
      "careful": 517,
      "sk": 518,
      "sorry": 519,
      "cle": 520,
      "hand": 521,
      "gave": 522,
      "ia": 523,
      "long": 524,
      "sun": 525,
      "into": 526,
      "water": 527,
      "tried": 528,
      "inside": 529,
      "told": 530,
      "couldn": 531,
      "proud": 532,
      "box": 533,
      "ta": 534,
      "cl": 535,
      "over": 536,
      "tter": 537,
      "heard": 538,
      "eat": 539,
      "dy": 540,
      "ear": 541,
      "cause": 542,
      "Then": 543,
      "gre": 544,
      "love": 545,
      "Suddenly": 546,
      "each": 547,
      "played": 548,
      "ump": 549,
      "this": 550,
      "pick": 551,
      "ion": 552,
      "sp": 553,
      "led": 554,
      "From": 555,
      "unt": 556,
      "pret": 557,
      "right": 558,
      "com": 559,
      "ct": 560,
      "just": 561,
      "Let": 562,
      "because": 563,
      "hugged": 564,
      "wat": 565,
      "Mia": 566,
      "off": 567,
      "che": 568,
      "His": 569,
      "nice": 570,
      "ile": 571,
      "And": 572,
      "fly": 573,
      "need": 574,
      "flow": 575,
      "uc": 576,
      "exp": 577,
      "many": 578,
      "try": 579,
      "small": 580,
      "iz": 581,
      "pot": 582,
      "shin": 583,
      "oug": 584,
      "bear": 585,
      "ving": 586,
      "ough": 587,
      "read": 588,
      "lad": 589,
      "uck": 590,
      "imal": 591,
      "animal": 592,
      "ber": 593,
      "until": 594,
      "rabb": 595,
      "That": 596,
      "self": 597,
      "its": 598,
      "ket": 599,
      "learned": 600,
      "bed": 601,
      "bea": 602,
      "fast": 603,
      "better": 604,
      "per": 605,
      "kind": 606,
      "vent": 607,
      "call": 608,
      "urn": 609,
      "ass": 610,
      "where": 611,
      "bra": 612,
      "best": 613,
      "explo": 614,
      "beaut": 615,
      "thanked": 616,
      "fi": 617,
      "even": 618,
      "sky": 619,
      "pt": 620,
      "gard": 621,
      "garden": 622,
      "fle": 623,
      "hur": 624,
      "safe": 625,
      "say": 626,
      "don": 627,
      "laughed": 628,
      "fin": 629,
      "ace": 630,
      "jump": 631,
      "lots": 632,
      "yes": 633,
      "What": 634,
      "loud": 635,
      "sur": 636,
      "Yes": 637,
      "Mommy": 638,
      "rong": 639,
      "nt": 640,
      "under": 641,
      "joy": 642,
      "iful": 643,
      "fam": 644,
      "let": 645,
      "beautiful": 646,
      "ched": 647,
      "still": 648,
      "give": 649,
      "rain": 650,
      "ank": 651,
      "list": 652,
      "ama": 653,
      "animals": 654,
      "Joh": 655,
      "ell": 656,
      "John": 657,
      "ning": 658,
      "stay": 659,
      "Can": 660,
      "turn": 661,
      "won": 662,
      "ree": 663,
      "book": 664,
      "ople": 665,
      "pu": 666,
      "both": 667,
      "ble": 668,
      "hard": 669,
      "lived": 670,
      "brave": 671,
      "bad": 672,
      "two": 673,
      "As": 674,
      "ground": 675,
      "ob": 676,
      "keep": 677,
      "Th": 678,
      "family": 679,
      "has": 680,
      "After": 681,
      "ished": 682,
      "tru": 683,
      "cks": 684,
      "people": 685,
      "flew": 686,
      "app": 687,
      "No": 688,
      "hurt": 689,
      "igh": 690,
      "rm": 691,
      "surpr": 692,
      "kept": 693,
      "Luc": 694,
      "walked": 695,
      "Lucy": 696,
      "ine": 697,
      "ort": 698,
      "lea": 699,
      "Thank": 700,
      "called": 701,
      "soon": 702,
      "real": 703,
      "should": 704,
      "con": 705,
      "arm": 706,
      "pic": 707,
      "angry": 708,
      "ised": 709,
      "sho": 710,
      "door": 711,
      "share": 712,
      "ane": 713,
      "Dad": 714,
      "ting": 715,
      "going": 716,
      "imp": 717,
      "clos": 718,
      "clean": 719,
      "sl": 720,
      "opened": 721,
      "ummy": 722,
      "doll": 723,
      "advent": 724,
      "pretty": 725,
      "shiny": 726,
      "before": 727,
      "place": 728,
      "wind": 729,
      "feeling": 730,
      "bro": 731,
      "ste": 732,
      "noise": 733,
      "illy": 734,
      "explore": 735,
      "lot": 736,
      "cu": 737,
      "mem": 738,
      "ild": 739,
      "les": 740,
      "cry": 741,
      "colo": 742,
      "Bob": 743,
      "dra": 744,
      "nex": 745,
      "fish": 746,
      "idea": 747,
      "set": 748,
      "lie": 749,
      "color": 750,
      "while": 751,
      "also": 752,
      "picked": 753,
      "next": 754,
      "thr": 755,
      "ture": 756,
      "smile": 757,
      "walking": 758,
      "ess": 759,
      "uch": 760,
      "face": 761,
      "tal": 762,
      "ied": 763,
      "work": 764,
      "adventure": 765,
      "clim": 766,
      "hear": 767,
      "€™": 768,
      "less": 769,
      "mor": 770,
      "iced": 771,
      "ak": 772,
      "ask": 773,
      "ark": 774,
      "picture": 775,
      "Lo": 776,
      "ever": 777,
      "nodd": 778,
      "being": 779,
      "used": 780,
      "looking": 781,
      "nodded": 782,
      "night": 783,
      "head": 784,
      "food": 785,
      "ies": 786,
      "member": 787,
      "dif": 788,
      "aybe": 789,
      "stopped": 790,
      "eyes": 791,
      "walk": 792,
      "hair": 793,
      "ught": 794,
      "after": 795,
      "think": 796,
      "enjoy": 797,
      "flowers": 798,
      "ries": 799,
      "great": 800,
      "listen": 801,
      "noticed": 802,
      "quick": 803,
      "wait": 804,
      "wonder": 805,
      "ized": 806,
      "blue": 807,
      "remember": 808,
      "vo": 809,
      "weet": 810,
      "year": 811,
      "amaz": 812,
      "forest": 813,
      "dis": 814,
      "everyone": 815,
      "blo": 816,
      "irst": 817,
      "bye": 818,
      "Sue": 819,
      "Spot": 820,
      "ring": 821,
      "store": 822,
      "Do": 823,
      "import": 824,
      "hands": 825,
      "near": 826,
      "showed": 827,
      "shout": 828,
      "slide": 829,
      "gan": 830,
      "mon": 831,
      "cake": 832,
      "bright": 833,
      "repl": 834,
      "strong": 835,
      "watch": 836,
      "top": 837,
      "mean": 838,
      "sound": 839,
      "truck": 840,
      "important": 841,
      "Look": 842,
      "cho": 843,
      "leave": 844,
      "tell": 845,
      "rest": 846,
      "sing": 847,
      "watched": 848,
      "quickly": 849,
      "This": 850,
      "boat": 851,
      "stick": 852,
      "sure": 853,
      "fere": 854,
      "llow": 855,
      "differe": 856,
      "swing": 857,
      "okay": 858,
      "bow": 859,
      "cream": 860,
      "sn": 861,
      "replied": 862,
      "cou": 863,
      "lease": 864,
      "follow": 865,
      "cook": 866,
      "rabbit": 867,
      "Jane": 868,
      "been": 869,
      "ner": 870,
      "voice": 871,
      "pul": 872,
      "Sarah": 873,
      "mag": 874,
      "goodbye": 875,
      "ip": 876,
      "stand": 877,
      "became": 878,
      "tor": 879,
      "ward": 880,
      "oft": 881,
      "warm": 882,
      "ff": 883,
      "different": 884,
      "high": 885,
      "tin": 886,
      "curi": 887,
      "dress": 888,
      "closer": 889,
      "bre": 890,
      "ung": 891,
      "does": 892,
      "Maybe": 893,
      "pie": 894,
      "ance": 895,
      "laugh": 896,
      "Everyone": 897,
      "leep": 898,
      "ph": 899,
      "ired": 900,
      "ready": 901,
      "andma": 902,
      "ached": 903,
      "tw": 904,
      "flower": 905,
      "ila": 906,
      "anymore": 907,
      "curious": 908,
      "ond": 909,
      "mis": 910,
      "flo": 911,
      "Lila": 912,
      "grabb": 913,
      "fav": 914,
      "open": 915,
      "three": 916,
      "ered": 917,
      "first": 918,
      "bit": 919,
      "cket": 920,
      "In": 921,
      "Joe": 922,
      "grabbed": 923,
      "pain": 924,
      "squ": 925,
      "kit": 926,
      "butter": 927,
      "light": 928,
      "kid": 929,
      "helped": 930,
      "tow": 931,
      "air": 932,
      "table": 933,
      "ster": 934,
      "med": 935,
      "fell": 936,
      "yel": 937,
      "times": 938,
      "Don": 939,
      "ft": 940,
      "chen": 941,
      "only": 942,
      "deli": 943,
      "kitchen": 944,
      "rock": 945,
      "unny": 946,
      "birds": 947,
      "dro": 948,
      "jumped": 949,
      "tr": 950,
      "glad": 951,
      "happened": 952,
      "sand": 953,
      "pare": 954,
      "ash": 955,
      "fire": 956,
      "grass": 957,
      "isy": 958,
      "stop": 959,
      "fl": 960,
      "reached": 961,
      "cr": 962,
      "cut": 963,
      "having": 964,
      "brother": 965,
      "realized": 966,
      "shed": 967,
      "through": 968,
      "yummy": 969,
      "Hel": 970,
      "story": 971,
      "sees": 972,
      "prin": 973,
      "piece": 974,
      "bal": 975,
      "cra": 976,
      "draw": 977,
      "game": 978,
      "zy": 979,
      "que": 980,
      "soft": 981,
      "mum": 982,
      "col": 983,
      "din": 984,
      "shouted": 985,
      "key": 986,
      "began": 987,
      "bor": 988,
      "sweet": 989,
      "lady": 990,
      "ater": 991,
      "coming": 992,
      "really": 993,
      "tired": 994,
      "magic": 995,
      "himself": 996,
      "favor": 997,
      "tra": 998,
      "world": 999,
      "done": 1000,
      "favorite": 1001,
      "olly": 1002,
      "Fin": 1003,
      "making": 1004,
      "wel": 1005,
      "Now": 1006,
      "fill": 1007,
      "Tommy": 1008,
      "move": 1009,
      "Wh": 1010,
      "ins": 1011,
      "kids": 1012,
      "fix": 1013,
      "waved": 1014,
      "ba": 1015,
      "rel": 1016,
      "seen": 1017,
      "ary": 1018,
      "pretend": 1019,
      "pond": 1020,
      "nts": 1021,
      "prom": 1022,
      "Sally": 1023,
      "cold": 1024,
      "catch": 1025,
      "worry": 1026,
      "why": 1027,
      "bunny": 1028,
      "funny": 1029,
      "name": 1030,
      "thank": 1031,
      "duck": 1032,
      "another": 1033,
      "swim": 1034,
      "parents": 1035,
      "looks": 1036,
      "ped": 1037,
      "cked": 1038,
      "touch": 1039,
      "mouse": 1040,
      "There": 1041,
      "ike": 1042,
      "uff": 1043,
      "bar": 1044,
      "ds": 1045,
      "river": 1046,
      "anc": 1047,
      "Wow": 1048,
      "fro": 1049,
      "paper": 1050,
      "farm": 1051,
      "cars": 1052,
      "oney": 1053,
      "ple": 1054,
      "age": 1055,
      "cool": 1056,
      "ppy": 1057,
      "close": 1058,
      "stre": 1059,
      "cor": 1060,
      "worked": 1061,
      "pro": 1062,
      "mess": 1063,
      "cried": 1064,
      "surprise": 1065,
      "full": 1066,
      "green": 1067,
      "cast": 1068,
      "hold": 1069,
      "hind": 1070,
      "hopped": 1071,
      "trees": 1072,
      "years": 1073,
      "bag": 1074,
      "aisy": 1075,
      "turned": 1076,
      "ger": 1077,
      "floor": 1078,
      "gu": 1079,
      "sat": 1080,
      "wood": 1081,
      "blocks": 1082,
      "sleep": 1083,
      "behind": 1084,
      "lesson": 1085,
      "andy": 1086,
      "running": 1087,
      "remembered": 1088,
      "yard": 1089,
      "climb": 1090,
      "window": 1091,
      "ation": 1092,
      "wear": 1093,
      "wished": 1094,
      "race": 1095,
      "yellow": 1096,
      "At": 1097,
      "mar": 1098,
      "slow": 1099,
      "needed": 1100,
      "doing": 1101,
      "happily": 1102,
      "pet": 1103,
      "far": 1104,
      "surprised": 1105,
      "ons": 1106,
      "aby": 1107,
      "To": 1108,
      "hole": 1109,
      "ign": 1110,
      "Benny": 1111,
      "Em": 1112,
      "Jim": 1113,
      "cious": 1114,
      "\".": 1115,
      "dark": 1116,
      "likes": 1117,
      "carefully": 1118,
      "finished": 1119,
      "Billy": 1120,
      "enjoyed": 1121,
      "butterfly": 1122,
      "buy": 1123,
      "cla": 1124,
      "lost": 1125,
      "dream": 1126,
      "held": 1127,
      "fair": 1128,
      "anything": 1129,
      "Finally": 1130,
      "stran": 1131,
      "arri": 1132,
      "left": 1133,
      "chil": 1134,
      "tle": 1135,
      "oo": 1136,
      "dren": 1137,
      "frog": 1138,
      "tri": 1139,
      "Daisy": 1140,
      "hill": 1141,
      "children": 1142,
      "spot": 1143,
      "wrong": 1144,
      "tall": 1145,
      "Molly": 1146,
      "herself": 1147,
      "ens": 1148,
      "ross": 1149,
      "followed": 1150,
      "bug": 1151,
      "delicious": 1152,
      "hung": 1153,
      "em": 1154,
      "mou": 1155,
      "forgot": 1156,
      "dir": 1157,
      "friendly": 1158,
      "contin": 1159,
      "hid": 1160,
      "reed": 1161,
      "Hello": 1162,
      "cess": 1163,
      "bot": 1164,
      "ield": 1165,
      "Jen": 1166,
      "ued": 1167,
      "vis": 1168,
      "build": 1169,
      "most": 1170,
      "ined": 1171,
      "understand": 1172,
      "wonderful": 1173,
      "ings": 1174,
      "spo": 1175,
      "castle": 1176,
      "hot": 1177,
      "arrived": 1178,
      "oken": 1179,
      "gone": 1180,
      "filled": 1181,
      "ient": 1182,
      "asure": 1183,
      "snow": 1184,
      "might": 1185,
      "baby": 1186,
      "else": 1187,
      "colors": 1188,
      "mat": 1189,
      "broken": 1190,
      "fr": 1191,
      "ange": 1192,
      "please": 1193,
      "agreed": 1194,
      "creat": 1195,
      "gent": 1196,
      "tight": 1197,
      "art": 1198,
      "sit": 1199,
      "land": 1200,
      "someone": 1201,
      "wards": 1202,
      "ather": 1203,
      "song": 1204,
      "erous": 1205,
      "continued": 1206,
      "fru": 1207,
      "irrel": 1208,
      "getting": 1209,
      "Amy": 1210,
      "stayed": 1211,
      "gl": 1212,
      "leaves": 1213,
      "finally": 1214,
      "row": 1215,
      "fight": 1216,
      "pat": 1217,
      "wants": 1218,
      "lion": 1219,
      "scary": 1220,
      "mother": 1221,
      "books": 1222,
      "enough": 1223,
      "ju": 1224,
      "ves": 1225,
      "morning": 1226,
      "squirrel": 1227,
      "break": 1228,
      "Why": 1229,
      "ence": 1230,
      "pink": 1231,
      "cha": 1232,
      "je": 1233,
      "fect": 1234,
      "tast": 1235,
      "poin": 1236,
      "whe": 1237,
      "fall": 1238,
      "av": 1239,
      "grandma": 1240,
      "dr": 1241,
      "OK": 1242,
      "roll": 1243,
      "moment": 1244,
      "amazing": 1245,
      "perfect": 1246,
      "Go": 1247,
      "icy": 1248,
      "trying": 1249,
      "pictures": 1250,
      "wet": 1251,
      "gon": 1252,
      "Gr": 1253,
      "daddy": 1254,
      "few": 1255,
      "cover": 1256,
      "ton": 1257,
      "hungry": 1258,
      "Jill": 1259,
      "pes": 1260,
      "others": 1261,
      "pack": 1262,
      "dinner": 1263,
      "sometimes": 1264,
      "beach": 1265,
      "white": 1266,
      "climbed": 1267,
      "oup": 1268,
      "ze": 1269,
      "mus": 1270,
      "wasn": 1271,
      "smiles": 1272,
      "listened": 1273,
      "fur": 1274,
      "puppy": 1275,
      "makes": 1276,
      "plain": 1277,
      "thes": 1278,
      "brought": 1279,
      "strange": 1280,
      "ot": 1281,
      "spl": 1282,
      "tail": 1283,
      "spark": 1284,
      "clothes": 1285,
      "mi": 1286,
      "sail": 1287,
      "talk": 1288,
      "asks": 1289,
      "cookies": 1290,
      "ballo": 1291,
      "uffy": 1292,
      "ious": 1293,
      "ucky": 1294,
      "ated": 1295,
      "sear": 1296,
      "appear": 1297,
      "kay": 1298,
      "everything": 1299,
      "wall": 1300,
      "bus": 1301,
      "Soon": 1302,
      "Come": 1303,
      "woods": 1304,
      "train": 1305,
      "amazed": 1306,
      "alone": 1307,
      "met": 1308,
      "waited": 1309,
      "bike": 1310,
      "pping": 1311,
      "nap": 1312,
      "plan": 1313,
      "ride": 1314,
      "grow": 1315,
      "danc": 1316,
      "ose": 1317,
      "deep": 1318,
      "dang": 1319,
      "zz": 1320,
      "All": 1321,
      "whis": 1322,
      "lake": 1323,
      "Be": 1324,
      "hor": 1325,
      "bath": 1326,
      "Oh": 1327,
      "gi": 1328,
      "thy": 1329,
      "pulled": 1330,
      "af": 1331,
      "Some": 1332,
      "treat": 1333,
      "cloud": 1334,
      "music": 1335,
      "hide": 1336,
      "field": 1337,
      "pur": 1338,
      "pers": 1339,
      "teddy": 1340,
      "silly": 1341,
      "Daddy": 1342,
      "sis": 1343,
      "belie": 1344,
      "flying": 1345,
      "cup": 1346,
      "ses": 1347,
      "towards": 1348,
      "ps": 1349,
      "pen": 1350,
      "owner": 1351,
      "fox": 1352,
      "mind": 1353,
      "runs": 1354,
      "promised": 1355,
      "board": 1356,
      "ames": 1357,
      "pieces": 1358,
      "shared": 1359,
      "visit": 1360,
      "Mama": 1361,
      "thinks": 1362,
      "gg": 1363,
      "money": 1364,
      "dance": 1365,
      "ateful": 1366,
      "sister": 1367,
      "grateful": 1368,
      "party": 1369,
      "ises": 1370,
      "slowly": 1371,
      "faster": 1372,
      "bran": 1373,
      "bigger": 1374,
      "worried": 1375,
      "miss": 1376,
      "ually": 1377,
      "such": 1378,
      "treasure": 1379,
      "dry": 1380,
      "living": 1381,
      "gif": 1382,
      "iet": 1383,
      "ich": 1384,
      "ctor": 1385,
      "iss": 1386,
      "blan": 1387,
      "reach": 1388,
      "magical": 1389,
      "moral": 1390,
      "colorful": 1391,
      "Just": 1392,
      "quiet": 1393,
      "answ": 1394,
      "snack": 1395,
      "explain": 1396,
      "ele": 1397,
      "Okay": 1398,
      "candy": 1399,
      "Sure": 1400,
      "Mr": 1401,
      "chair": 1402,
      "job": 1403,
      "must": 1404,
      "plant": 1405,
      "pass": 1406,
      "join": 1407,
      "lice": 1408,
      "everywhere": 1409,
      "ment": 1410,
      "dolls": 1411,
      "heav": 1412,
      "farmer": 1413,
      "black": 1414,
      "thre": 1415,
      "rot": 1416,
      "words": 1417,
      "smel": 1418,
      "broke": 1419,
      "across": 1420,
      "mouth": 1421,
      "pull": 1422,
      "mix": 1423,
      "helping": 1424,
      "scream": 1425,
      "Mary": 1426,
      "monster": 1427,
      "bee": 1428,
      "gra": 1429,
      "win": 1430,
      "hes": 1431,
      "heal": 1432,
      "swa": 1433,
      "same": 1434,
      "stepped": 1435,
      "dri": 1436,
      "bowl": 1437,
      "dangerous": 1438,
      "smart": 1439,
      "ident": 1440,
      "Mum": 1441,
      "ap": 1442,
      "ng": 1443,
      "doctor": 1444,
      "heavy": 1445,
      "teac": 1446,
      "crying": 1447,
      "believe": 1448,
      "Jimmy": 1449,
      "sign": 1450,
      "start": 1451,
      "dirty": 1452,
      "princess": 1453,
      "appeared": 1454,
      "wouldn": 1455,
      "igg": 1456,
      "hig": 1457,
      "swam": 1458,
      "closed": 1459,
      "tent": 1460,
      "dragon": 1461,
      "threw": 1462,
      "spr": 1463,
      "twins": 1464,
      "Grandma": 1465,
      "sy": 1466,
      "press": 1467,
      "tower": 1468,
      "town": 1469,
      "bite": 1470,
      "min": 1471,
      "pow": 1472,
      "shar": 1473,
      "Emma": 1474,
      "stuck": 1475,
      "sc": 1476,
      "wr": 1477,
      "Please": 1478,
      "chool": 1479,
      "school": 1480,
      "iting": 1481,
      "ourse": 1482,
      "balloon": 1483,
      "unch": 1484,
      "stu": 1485,
      "eating": 1486,
      "Hi": 1487,
      "shine": 1488,
      "fairy": 1489,
      "round": 1490,
      "bas": 1491,
      "comfor": 1492,
      "teacher": 1493,
      "free": 1494,
      "cheered": 1495,
      "blanket": 1496,
      "hoped": 1497,
      "plane": 1498,
      "button": 1499,
      "paint": 1500,
      "har": 1501,
      "neigh": 1502,
      "cident": 1503,
      "higher": 1504,
      "clapped": 1505,
      "Inside": 1506,
      "sea": 1507,
      "feels": 1508,
      "ventually": 1509,
      "ches": 1510,
      "suddenly": 1511,
      "ub": 1512,
      "str": 1513,
      "stood": 1514,
      "child": 1515,
      "Fl": 1516,
      "without": 1517,
      "gentle": 1518,
      "fence": 1519,
      "cray": 1520,
      "moved": 1521,
      "ek": 1522,
      "accident": 1523,
      "today": 1524,
      "pushed": 1525,
      "brown": 1526,
      "wings": 1527,
      "longer": 1528,
      "da": 1529,
      "phone": 1530,
      "drove": 1531,
      "lone": 1532,
      "takes": 1533,
      "stead": 1534,
      "jour": 1535,
      "swings": 1536,
      "kiss": 1537,
      "basket": 1538,
      "ire": 1539,
      "leg": 1540,
      "happen": 1541,
      "past": 1542,
      "lonely": 1543,
      "course": 1544,
      "welcome": 1545,
      "games": 1546,
      "along": 1547,
      "kno": 1548,
      "Fluffy": 1549,
      "sang": 1550,
      "ney": 1551,
      "noises": 1552,
      "wise": 1553,
      "explained": 1554,
      "singing": 1555,
      "stories": 1556,
      "upset": 1557,
      "ling": 1558,
      "sent": 1559,
      "val": 1560,
      "stone": 1561,
      "shoes": 1562,
      "itch": 1563,
      "ours": 1564,
      "throw": 1565,
      "though": 1566,
      "adventures": 1567,
      "turns": 1568,
      "rocks": 1569,
      "ible": 1570,
      "bring": 1571,
      "ming": 1572,
      "pol": 1573,
      "secre": 1574,
      "well": 1575,
      "owl": 1576,
      "add": 1577,
      "itting": 1578,
      "apple": 1579,
      "phant": 1580,
      "dist": 1581,
      "hugs": 1582,
      "soup": 1583,
      "shop": 1584,
      "wish": 1585,
      "late": 1586,
      "trou": 1587,
      "jar": 1588,
      "stars": 1589,
      "taking": 1590,
      "del": 1591,
      "Their": 1592,
      "oun": 1593,
      "lunch": 1594,
      "woke": 1595,
      "Sammy": 1596,
      "young": 1597,
      "elephant": 1598,
      "dropped": 1599,
      "exploring": 1600,
      "neck": 1601,
      "ntain": 1602,
      "backyard": 1603,
      "heart": 1604,
      "caught": 1605,
      "forget": 1606,
      "ben": 1607,
      "tiny": 1608,
      "fused": 1609,
      "pocket": 1610,
      "belong": 1611,
      "seemed": 1612,
      "shook": 1613,
      "naught": 1614,
      "drink": 1615,
      "Pe": 1616,
      "naughty": 1617,
      "orange": 1618,
      "body": 1619,
      "mail": 1620,
      "hit": 1621,
      "juice": 1622,
      "street": 1623,
      "relie": 1624,
      "Later": 1625,
      "part": 1626,
      "pig": 1627,
      "des": 1628,
      "kne": 1629,
      "busy": 1630,
      "ions": 1631,
      "El": 1632,
      "shell": 1633,
      "nearby": 1634,
      "cal": 1635,
      "pra": 1636,
      "hu": 1637,
      "shapes": 1638,
      "bucket": 1639,
      "sco": 1640,
      "My": 1641,
      "mine": 1642,
      "mil": 1643,
      "hello": 1644,
      "coat": 1645,
      "su": 1646,
      "ughter": 1647,
      "rainbow": 1648,
      "huge": 1649,
      "ser": 1650,
      "ship": 1651,
      "fing": 1652,
      "daughter": 1653,
      "arms": 1654,
      "forever": 1655,
      "fit": 1656,
      "quest": 1657,
      "cow": 1658,
      "idge": 1659,
      "purple": 1660,
      "nose": 1661,
      "mer": 1662,
      "sick": 1663,
      "wondered": 1664,
      "gift": 1665,
      "ier": 1666,
      "driver": 1667,
      "branch": 1668,
      "Le": 1669,
      "erful": 1670,
      "carry": 1671,
      "nest": 1672,
      "secret": 1673,
      "peace": 1674,
      "monkey": 1675,
      "amp": 1676,
      "smell": 1677,
      "ese": 1678,
      "band": 1679,
      "pper": 1680,
      "ull": 1681,
      "oom": 1682,
      "chas": 1683,
      "pil": 1684,
      "comes": 1685,
      "swimming": 1686,
      "ittens": 1687,
      "days": 1688,
      "With": 1689,
      "covered": 1690,
      "gest": 1691,
      "brea": 1692,
      "sitting": 1693,
      "cir": 1694,
      "wand": 1695,
      "relieved": 1696,
      "boun": 1697,
      "wra": 1698,
      "craw": 1699,
      "nothing": 1700,
      "raid": 1701,
      "life": 1702,
      "afraid": 1703,
      "sug": 1704,
      "sounds": 1705,
      "va": 1706,
      "thday": 1707,
      "push": 1708,
      "count": 1709,
      "cute": 1710,
      "patient": 1711,
      "ars": 1712,
      "touc": 1713,
      "vel": 1714,
      "touched": 1715,
      "kite": 1716,
      "letter": 1717,
      "mach": 1718,
      "net": 1719,
      "exciting": 1720,
      "creature": 1721,
      "holding": 1722,
      "Good": 1723,
      "promise": 1724,
      "sunshine": 1725,
      "bench": 1726,
      "accidentally": 1727,
      "live": 1728,
      "colle": 1729,
      "loves": 1730,
      "laughing": 1731,
      "Tweet": 1732,
      "journey": 1733,
      "inte": 1734,
      "onto": 1735,
      "egg": 1736,
      "interest": 1737,
      "How": 1738,
      "lucky": 1739,
      "cheese": 1740,
      "grab": 1741,
      "Of": 1742,
      "cave": 1743,
      "birthday": 1744,
      "ness": 1745,
      "orn": 1746,
      "cozy": 1747,
      "sunny": 1748,
      "gives": 1749,
      "Jenny": 1750,
      "coun": 1751,
      "irt": 1752,
      "log": 1753,
      "milk": 1754,
      "hope": 1755,
      "neighbor": 1756,
      "eas": 1757,
      "spin": 1758,
      "instead": 1759,
      "bread": 1760,
      "di": 1761,
      "smiling": 1762,
      "pudd": 1763,
      "imag": 1764,
      "itten": 1765,
      "searched": 1766,
      "uni": 1767,
      "Hey": 1768,
      "ye": 1769,
      "act": 1770,
      "gather": 1771,
      "bush": 1772,
      "wide": 1773,
      "storm": 1774,
      "sli": 1775,
      "shes": 1776,
      "pointed": 1777,
      "ade": 1778,
      "bought": 1779,
      "ian": 1780,
      "Ted": 1781,
      "anyone": 1782,
      "att": 1783,
      "ugg": 1784,
      "bottle": 1785,
      "word": 1786,
      "ize": 1787,
      "gen": 1788,
      "watching": 1789,
      "ced": 1790,
      "kick": 1791,
      "suc": 1792,
      "comfortable": 1793,
      "later": 1794,
      "Emily": 1795,
      "person": 1796,
      "tasty": 1797,
      "snake": 1798,
      "nic": 1799,
      "gged": 1800,
      "sandw": 1801,
      "healthy": 1802,
      "num": 1803,
      "oman": 1804,
      "rope": 1805,
      "road": 1806,
      "present": 1807,
      "talked": 1808,
      "puts": 1809,
      "spid": 1810,
      "woman": 1811,
      "blem": 1812,
      "problem": 1813,
      "sharp": 1814,
      "shining": 1815,
      "lay": 1816,
      "honey": 1817,
      "trouble": 1818,
      "tun": 1819,
      "bru": 1820,
      "clouds": 1821,
      "interesting": 1822,
      "zoom": 1823,
      "meet": 1824,
      "smelled": 1825,
      "apples": 1826,
      "ast": 1827,
      "pract": 1828,
      "clever": 1829,
      "vill": 1830,
      "puzz": 1831,
      "Mittens": 1832,
      "dest": 1833,
      "cer": 1834,
      "horse": 1835,
      "lovely": 1836,
      "pile": 1837,
      "rolled": 1838,
      "orm": 1839,
      "circle": 1840,
      "roar": 1841,
      "spoon": 1842,
      "war": 1843,
      "zoo": 1844,
      "matter": 1845,
      "organ": 1846,
      "which": 1847,
      "ducks": 1848,
      "myster": 1849,
      "gigg": 1850,
      "bled": 1851,
      "inv": 1852,
      "tea": 1853,
      "crayons": 1854,
      "grand": 1855,
      "whole": 1856,
      "os": 1857,
      "card": 1858,
      "fron": 1859,
      "splash": 1860,
      "path": 1861,
      "isa": 1862,
      "front": 1863,
      "prote": 1864,
      "fruit": 1865,
      "Where": 1866,
      "wash": 1867,
      "wheel": 1868,
      "ching": 1869,
      "spotted": 1870,
      "tasted": 1871,
      "snowman": 1872,
      "hop": 1873,
      "danced": 1874,
      "Jake": 1875,
      "eag": 1876,
      "pan": 1877,
      "places": 1878,
      "impress": 1879,
      "thin": 1880,
      "wearing": 1881,
      "last": 1882,
      "feather": 1883,
      "mud": 1884,
      "giant": 1885,
      "cean": 1886,
      "Are": 1887,
      "ocean": 1888,
      "Sometimes": 1889,
      "asleep": 1890,
      "Lisa": 1891,
      "answer": 1892,
      "lock": 1893,
      "seat": 1894,
      "fli": 1895,
      "screamed": 1896,
      "If": 1897,
      "minut": 1898,
      "slid": 1899,
      "ned": 1900,
      "izz": 1901,
      "vie": 1902,
      "Together": 1903,
      "shelf": 1904,
      "respe": 1905,
      "spent": 1906,
      "sack": 1907,
      "goes": 1908,
      "worm": 1909,
      "berries": 1910,
      "corner": 1911,
      "picnic": 1912,
      "building": 1913,
      "dirt": 1914,
      "wild": 1915,
      "string": 1916,
      "pill": 1917,
      "Mummy": 1918,
      "tool": 1919,
      "bubb": 1920,
      "gently": 1921,
      "lar": 1922,
      "ased": 1923,
      "ones": 1924,
      "oven": 1925,
      "spider": 1926,
      "corn": 1927,
      "rubb": 1928,
      "confused": 1929,
      "tries": 1930,
      "uce": 1931,
      "mel": 1932,
      "itty": 1933,
      "finish": 1934,
      "foot": 1935,
      "joke": 1936,
      "write": 1937,
      "faces": 1938,
      "wave": 1939,
      "feet": 1940,
      "couch": 1941,
      "peaceful": 1942,
      "kets": 1943,
      "Pa": 1944,
      "chick": 1945,
      "teach": 1946,
      "shr": 1947,
      "ladder": 1948,
      "bell": 1949,
      "coin": 1950,
      "œI": 1951,
      "remind": 1952,
      "whenever": 1953,
      "pread": 1954,
      "forgive": 1955,
      "cele": 1956,
      "spread": 1957,
      "smoo": 1958,
      "helpful": 1959,
      "ert": 1960,
      "furry": 1961,
      "delight": 1962,
      "blew": 1963,
      "collect": 1964,
      "res": 1965,
      "stair": 1966,
      "eventually": 1967,
      "ipped": 1968,
      "calm": 1969,
      "paw": 1970,
      "trip": 1971,
      "tid": 1972,
      "test": 1973,
      "drive": 1974,
      "pour": 1975,
      "cookie": 1976,
      "respect": 1977,
      "eth": 1978,
      "smooth": 1979,
      "rude": 1980,
      "embar": 1981,
      "mountain": 1982,
      "embarr": 1983,
      "Peter": 1984,
      "sol": 1985,
      "ity": 1986,
      "bugs": 1987,
      "shy": 1988,
      "machine": 1989,
      "pool": 1990,
      "talking": 1991,
      "pop": 1992,
      "stret": 1993,
      "den": 1994,
      "teeth": 1995,
      "tur": 1996,
      "pretended": 1997,
      "waiting": 1998,
      "Everywhere": 1999,
      "fighting": 2000,
      "embarrass": 2001,
      "step": 2002,
      "hiding": 2003,
      "cloth": 2004,
      "colour": 2005,
      "village": 2006,
      "Little": 2007,
      "spray": 2008,
      "Here": 2009,
      "fold": 2010,
      "celebr": 2011,
      "tomor": 2012,
      "tomorrow": 2013,
      "prince": 2014,
      "shirt": 2015,
      "seek": 2016,
      "hum": 2017,
      "swe": 2018,
      "Sus": 2019,
      "cannot": 2020,
      "chocol": 2021,
      "erly": 2022,
      "carrot": 2023,
      "large": 2024,
      "puddle": 2025,
      "rots": 2026,
      "cross": 2027,
      "hang": 2028,
      "spit": 2029,
      "mir": 2030,
      "lt": 2031,
      "lace": 2032,
      "fixed": 2033,
      "rich": 2034,
      "sne": 2035,
      "ban": 2036,
      "ife": 2037,
      "chased": 2038,
      "rag": 2039,
      "treats": 2040,
      "Teddy": 2041,
      "knee": 2042,
      "Johnny": 2043,
      "carrots": 2044,
      "cord": 2045,
      "emp": 2046,
      "whistle": 2047,
      "taste": 2048,
      "empty": 2049,
      "protect": 2050,
      "songs": 2051,
      "banan": 2052,
      "rank": 2053,
      "shake": 2054,
      "wore": 2055,
      "tidy": 2056,
      "getable": 2057,
      "leaf": 2058,
      "barked": 2059,
      "shad": 2060,
      "scre": 2061,
      "Who": 2062,
      "stir": 2063,
      "selfish": 2064,
      "vegetable": 2065,
      "ighed": 2066,
      "onest": 2067,
      "ult": 2068,
      "ungle": 2069,
      "While": 2070,
      "Stop": 2071,
      "plate": 2072,
      "forward": 2073,
      "jungle": 2074,
      "save": 2075,
      "necklace": 2076,
      "embarrassed": 2077,
      "creative": 2078,
      "stra": 2079,
      "umpy": 2080,
      "grew": 2081,
      "ten": 2082,
      "tightly": 2083,
      "ending": 2084,
      "chocolate": 2085,
      "lves": 2086,
      "oin": 2087,
      "maybe": 2088,
      "sparkly": 2089,
      "jumping": 2090,
      "crab": 2091,
      "honest": 2092,
      "knocked": 2093,
      "hero": 2094,
      "trust": 2095,
      "deter": 2096,
      "Help": 2097,
      "spicy": 2098,
      "appoin": 2099,
      "legs": 2100,
      "cur": 2101,
      "Even": 2102,
      "kitten": 2103,
      "adow": 2104,
      "Alice": 2105,
      "decor": 2106,
      "Bo": 2107,
      "Fred": 2108,
      "sque": 2109,
      "missed": 2110,
      "meant": 2111,
      "meadow": 2112,
      "cted": 2113,
      "hears": 2114,
      "Re": 2115,
      "moon": 2116,
      "disappoin": 2117,
      "clear": 2118,
      "almost": 2119,
      "lemon": 2120,
      "stairs": 2121,
      "sheep": 2122,
      "cage": 2123,
      "tie": 2124,
      "gun": 2125,
      "Today": 2126,
      "puzzle": 2127,
      "sour": 2128,
      "breath": 2129,
      "tells": 2130,
      "Rex": 2131,
      "era": 2132,
      "fear": 2133,
      "glow": 2134,
      "robot": 2135,
      "sharing": 2136,
      "ee": 2137,
      "nut": 2138,
      "landed": 2139,
      "block": 2140,
      "sup": 2141,
      "hours": 2142,
      "note": 2143,
      "pizz": 2144,
      "gray": 2145,
      "group": 2146,
      "seed": 2147,
      "elly": 2148,
      "Ann": 2149,
      "carried": 2150,
      "line": 2151,
      "pri": 2152,
      "Me": 2153,
      "hidden": 2154,
      "cape": 2155,
      "ancy": 2156,
      "Mark": 2157,
      "cop": 2158,
      "returned": 2159,
      "blow": 2160,
      "TV": 2161,
      "burn": 2162,
      "tu": 2163,
      "gets": 2164,
      "disappointed": 2165,
      "snacks": 2166,
      "van": 2167,
      "sticks": 2168,
      "thankful": 2169,
      "asha": 2170,
      "pay": 2171,
      "packed": 2172,
      "knowing": 2173,
      "jewel": 2174,
      "frustr": 2175,
      "ail": 2176,
      "sleepy": 2177,
      "brush": 2178,
      "gold": 2179,
      "understood": 2180,
      "shore": 2181,
      "success": 2182,
      "ugly": 2183,
      "balls": 2184,
      "coura": 2185,
      "gy": 2186,
      "rocket": 2187,
      "pin": 2188,
      "vous": 2189,
      "ants": 2190,
      "messy": 2191,
      "keeper": 2192,
      "spital": 2193,
      "orry": 2194,
      "pillow": 2195,
      "hospital": 2196,
      "law": 2197,
      "plants": 2198,
      "kin": 2199,
      "pizza": 2200,
      "mysterious": 2201,
      "frustrated": 2202,
      "rad": 2203,
      "standing": 2204,
      "Sorry": 2205,
      "ony": 2206,
      "Susie": 2207,
      "nods": 2208,
      "polite": 2209,
      "fancy": 2210,
      "drew": 2211,
      "berry": 2212,
      "spla": 2213,
      "twirl": 2214,
      "easy": 2215,
      "gas": 2216,
      "yelled": 2217,
      "ashamed": 2218,
      "mined": 2219,
      "sandwich": 2220,
      "tro": 2221,
      "these": 2222,
      "taught": 2223,
      "Leo": 2224,
      "mummy": 2225,
      "determined": 2226,
      "mark": 2227,
      "cries": 2228,
      "fla": 2229,
      "osa": 2230,
      "flies": 2231,
      "bedroom": 2232,
      "generous": 2233,
      "fig": 2234,
      "poor": 2235,
      "ignor": 2236,
      "gathered": 2237,
      "waves": 2238,
      "ird": 2239,
      "wolf": 2240,
      "itter": 2241,
      "nervous": 2242,
      "vase": 2243,
      "ual": 2244,
      "bridge": 2245,
      "ensive": 2246,
      "deer": 2247,
      "expensive": 2248,
      "powerful": 2249,
      "cy": 2250,
      "dle": 2251,
      "police": 2252,
      "ken": 2253,
      "usual": 2254,
      "dancing": 2255,
      "fre": 2256,
      "known": 2257,
      "excite": 2258,
      "spoil": 2259,
      "often": 2260,
      "sage": 2261,
      "passed": 2262,
      "bat": 2263,
      "bored": 2264,
      "erpill": 2265,
      "caterpill": 2266,
      "osaur": 2267,
      "bul": 2268,
      "fil": 2269,
      "flag": 2270,
      "sold": 2271,
      "case": 2272,
      "finger": 2273,
      "minutes": 2274,
      "towel": 2275,
      "ina": 2276,
      "Your": 2277,
      "iddle": 2278,
      "dinosaur": 2279,
      "lit": 2280,
      "pir": 2281,
      "pleased": 2282,
      "saved": 2283,
      "stum": 2284,
      "excitement": 2285,
      "bers": 2286,
      "izzy": 2287,
      "working": 2288,
      "drum": 2289,
      "whisper": 2290,
      "Give": 2291,
      "cri": 2292,
      "boring": 2293,
      "exam": 2294,
      "gate": 2295,
      "taken": 2296,
      "feed": 2297,
      "iness": 2298,
      "grumpy": 2299,
      "kissed": 2300,
      "vegetables": 2301,
      "week": 2302,
      "closet": 2303,
      "sighed": 2304,
      "pace": 2305,
      "aser": 2306,
      "medic": 2307,
      "Pet": 2308,
      "scarf": 2309,
      "chest": 2310,
      "chew": 2311,
      "hose": 2312,
      "answered": 2313,
      "class": 2314,
      "caterpillar": 2315,
      "medicine": 2316,
      "form": 2317,
      "rela": 2318,
      "tears": 2319,
      "relax": 2320,
      "lly": 2321,
      "espe": 2322,
      "crown": 2323,
      "Mar": 2324,
      "jelly": 2325,
      "middle": 2326,
      "match": 2327,
      "yourself": 2328,
      "Bl": 2329,
      "Ch": 2330,
      "tig": 2331,
      "hopping": 2332,
      "allow": 2333,
      "pair": 2334,
      "bone": 2335,
      "au": 2336,
      "knight": 2337,
      "number": 2338,
      "ror": 2339,
      "See": 2340,
      "cially": 2341,
      "especially": 2342,
      "space": 2343,
      "smelly": 2344,
      "wagged": 2345,
      "true": 2346,
      "issor": 2347,
      "fruits": 2348,
      "lying": 2349,
      "lazy": 2350,
      "flut": 2351,
      "weak": 2352,
      "illed": 2353,
      "asking": 2354,
      "mistake": 2355,
      "Kitty": 2356,
      "stuff": 2357,
      "Whe": 2358,
      "distance": 2359,
      "Pete": 2360,
      "issors": 2361,
      "content": 2362,
      "lown": 2363,
      "scissors": 2364,
      "licked": 2365,
      "change": 2366,
      "team": 2367,
      "cand": 2368,
      "soar": 2369,
      "mic": 2370,
      "pray": 2371,
      "sight": 2372,
      "inc": 2373,
      "picks": 2374,
      "playground": 2375,
      "eggs": 2376,
      "splashed": 2377,
      "father": 2378,
      "drawing": 2379,
      "giggled": 2380,
      "ruined": 2381,
      "wake": 2382,
      "lif": 2383,
      "bark": 2384,
      "rid": 2385,
      "micro": 2386,
      "clown": 2387,
      "son": 2388,
      "become": 2389,
      "Bobby": 2390,
      "kn": 2391,
      "boss": 2392,
      "painting": 2393,
      "eld": 2394,
      "sailed": 2395,
      "ella": 2396,
      "walks": 2397,
      "Eventually": 2398,
      "ates": 2399,
      "stones": 2400,
      "questions": 2401,
      "lead": 2402,
      "queen": 2403,
      "End": 2404,
      "ating": 2405,
      "fluffy": 2406,
      "aged": 2407,
      "bathroom": 2408,
      "lose": 2409,
      "suit": 2410,
      "rote": 2411,
      "alous": 2412,
      "calling": 2413,
      "feathers": 2414,
      "mirror": 2415,
      "wrote": 2416,
      "toes": 2417,
      "ham": 2418,
      "sell": 2419,
      "soap": 2420,
      "jealous": 2421,
      "Blue": 2422,
      "order": 2423,
      "incred": 2424,
      "bake": 2425,
      "using": 2426,
      "disappeared": 2427,
      "fake": 2428,
      "boys": 2429,
      "suggest": 2430,
      "moving": 2431,
      "skipped": 2432,
      "cher": 2433,
      "juicy": 2434,
      "glass": 2435,
      "sugar": 2436,
      "sweetie": 2437,
      "giving": 2438,
      "Mrs": 2439,
      "famous": 2440,
      "yal": 2441,
      "dogs": 2442,
      "unusual": 2443,
      "fine": 2444,
      "cil": 2445,
      "drank": 2446,
      "noisy": 2447,
      "tub": 2448,
      "Mandy": 2449,
      "jam": 2450,
      "measure": 2451,
      "wip": 2452,
      "extra": 2453,
      "eye": 2454,
      "vest": 2455,
      "dish": 2456,
      "discovered": 2457,
      "fu": 2458,
      "pencil": 2459,
      "arage": 2460,
      "glue": 2461,
      "elderly": 2462,
      "tain": 2463,
      "ero": 2464,
      "als": 2465,
      "incredible": 2466,
      "garage": 2467,
      "bubbles": 2468,
      "sil": 2469,
      "Ne": 2470,
      "eager": 2471,
      "happening": 2472,
      "decide": 2473,
      "ears": 2474,
      "realised": 2475,
      "thick": 2476,
      "check": 2477,
      "branches": 2478,
      "locked": 2479,
      "tiger": 2480,
      "cleaned": 2481,
      "crawled": 2482,
      "colourful": 2483,
      "motor": 2484,
      "Rose": 2485,
      "shows": 2486,
      "Dave": 2487,
      "yours": 2488,
      "wrapped": 2489,
      "dig": 2490,
      "gue": 2491,
      "map": 2492,
      "gust": 2493,
      "supp": 2494,
      "Br": 2495,
      "cro": 2496,
      "once": 2497,
      "nod": 2498,
      "chang": 2499,
      "Ella": 2500,
      "loyal": 2501,
      "wha": 2502,
      "Letâ": 2503,
      "Well": 2504,
      "organized": 2505,
      "figure": 2506,
      "offered": 2507,
      "tag": 2508,
      "lid": 2509,
      "rare": 2510,
      "horn": 2511,
      "borrow": 2512,
      "tape": 2513,
      "ery": 2514,
      "frown": 2515,
      "cam": 2516,
      "uggled": 2517,
      "banana": 2518,
      "tom": 2519,
      "mighty": 2520,
      "barn": 2521,
      "louder": 2522,
      "Ducky": 2523,
      "ately": 2524,
      "adventur": 2525,
      "chicken": 2526,
      "unique": 2527,
      "smo": 2528,
      "breakfast": 2529,
      "managed": 2530,
      "boxes": 2531,
      "enjoying": 2532,
      "ular": 2533,
      "ured": 2534,
      "St": 2535,
      "dol": 2536,
      "bottom": 2537,
      "city": 2538,
      "ipe": 2539,
      "lamp": 2540,
      "Bu": 2541,
      "impressed": 2542,
      "adventurous": 2543,
      "lift": 2544,
      "cient": 2545,
      "flash": 2546,
      "chase": 2547,
      "straw": 2548,
      "toug": 2549,
      "against": 2550,
      "knife": 2551,
      "happiness": 2552,
      "kindness": 2553,
      "dolph": 2554,
      "fic": 2555,
      "bloom": 2556,
      "?\".": 2557,
      "cheerful": 2558,
      "shells": 2559,
      "dep": 2560,
      "added": 2561,
      "illi": 2562,
      "moms": 2563,
      "Dan": 2564,
      "port": 2565,
      "rough": 2566,
      "comple": 2567,
      "favour": 2568,
      "choose": 2569,
      "tory": 2570,
      "harm": 2571,
      "market": 2572,
      "og": 2573,
      "spun": 2574,
      "diffic": 2575,
      "balance": 2576,
      "fridge": 2577,
      "imed": 2578,
      "runk": 2579,
      "Whenever": 2580,
      "Bella": 2581,
      "rat": 2582,
      "selves": 2583,
      "whale": 2584,
      "coins": 2585,
      "favourite": 2586,
      "Ow": 2587,
      "ez": 2588,
      "norm": 2589,
      "nel": 2590,
      "trucks": 2591,
      "fool": 2592,
      "hurts": 2593,
      "lean": 2594,
      "nail": 2595,
      "sword": 2596,
      "needs": 2597,
      "guess": 2598,
      "difficult": 2599,
      "Nemo": 2600,
      "Brown": 2601,
      "tough": 2602,
      "dizzy": 2603,
      "polog": 2604,
      "grown": 2605,
      "loudly": 2606,
      "balloons": 2607,
      "weird": 2608,
      "pee": 2609,
      "smoke": 2610,
      "fright": 2611,
      "apolog": 2612,
      "ilt": 2613,
      "slipped": 2614,
      "goat": 2615,
      "belonged": 2616,
      "ator": 2617,
      "Ho": 2618,
      "fat": 2619,
      "men": 2620,
      "wagon": 2621,
      "pointing": 2622,
      "bs": 2623,
      "dreamed": 2624,
      "yell": 2625,
      "swan": 2626,
      "Paul": 2627,
      "four": 2628,
      "stubb": 2629,
      "depend": 2630,
      "normal": 2631,
      "grace": 2632,
      "safely": 2633,
      "Mil": 2634,
      "laughs": 2635,
      "courage": 2636,
      "pump": 2637,
      "sca": 2638,
      "record": 2639,
      "boo": 2640,
      "agree": 2641,
      "stubborn": 2642,
      "lifted": 2643,
      "obed": 2644,
      "wis": 2645,
      "learning": 2646,
      "shark": 2647,
      "already": 2648,
      "means": 2649,
      "nur": 2650,
      "bald": 2651,
      "weal": 2652,
      "mixed": 2653,
      "search": 2654,
      "circles": 2655,
      "falls": 2656,
      "foolish": 2657,
      "Grand": 2658,
      "pal": 2659,
      "scare": 2660,
      "aw": 2661,
      "eng": 2662,
      "movie": 2663,
      "acce": 2664,
      "brothers": 2665,
      "fresh": 2666,
      "dreams": 2667,
      "vide": 2668,
      "obedient": 2669,
      "edge": 2670,
      "adm": 2671,
      "bble": 2672,
      "compet": 2673,
      "tunnel": 2674,
      "angel": 2675,
      "successful": 2676,
      "Ju": 2677,
      "stri": 2678,
      "kinds": 2679,
      "stream": 2680,
      "Bobo": 2681,
      "rh": 2682,
      "clay": 2683,
      "reli": 2684,
      "sounded": 2685,
      "helps": 2686,
      "bitter": 2687,
      "escape": 2688,
      "office": 2689,
      "ination": 2690,
      "walls": 2691,
      "buttons": 2692,
      "clap": 2693,
      "competit": 2694,
      "ature": 2695,
      "hi": 2696,
      "scr": 2697,
      "hats": 2698,
      "stronger": 2699,
      "valu": 2700,
      "reliable": 2701,
      "skin": 2702,
      "shape": 2703,
      "tools": 2704,
      "yog": 2705,
      "roof": 2706,
      "brilli": 2707,
      "rubbed": 2708,
      "bossy": 2709,
      "knows": 2710,
      "saying": 2711,
      "guit": 2712,
      "graceful": 2713,
      "dependable": 2714,
      "stru": 2715,
      "nosy": 2716,
      "aced": 2717,
      "trunk": 2718,
      "cart": 2719,
      "bounce": 2720,
      "crack": 2721,
      "brilliant": 2722,
      "cab": 2723,
      "jac": 2724,
      "arry": 2725,
      "vet": 2726,
      "joined": 2727,
      "proudly": 2728,
      "harder": 2729,
      "Ro": 2730,
      "bove": 2731,
      "thoughtful": 2732,
      "explored": 2733,
      "fier": 2734,
      "crayon": 2735,
      "turtle": 2736,
      "frightened": 2737,
      "wing": 2738,
      "houses": 2739,
      "Will": 2740,
      "ancient": 2741,
      "cudd": 2742,
      "terri": 2743,
      "island": 2744,
      "orge": 2745,
      "useful": 2746,
      "Ge": 2747,
      "amond": 2748,
      "epend": 2749,
      "bushes": 2750,
      "grandpa": 2751,
      "above": 2752,
      "ext": 2753,
      "invited": 2754,
      "libr": 2755,
      "twig": 2756,
      "batter": 2757,
      "fierce": 2758,
      "stumbled": 2759,
      "enorm": 2760,
      "Next": 2761,
      "independ": 2762,
      "enormous": 2763,
      "excla": 2764,
      "camera": 2765,
      "notice": 2766,
      "Joey": 2767,
      "suggested": 2768,
      "exclaimed": 2769,
      "meal": 2770,
      "jog": 2771,
      "oph": 2772,
      "guitar": 2773,
      "yarn": 2774,
      "counted": 2775,
      "shadow": 2776,
      "Grandpa": 2777,
      "diamond": 2778,
      "tummy": 2779,
      "changed": 2780,
      "rode": 2781,
      "tank": 2782,
      "Ellie": 2783,
      "valuable": 2784,
      "beet": 2785,
      "gem": 2786,
      "seem": 2787,
      "clock": 2788,
      "bags": 2789,
      "poured": 2790,
      "study": 2791,
      "reg": 2792,
      "smaller": 2793,
      "frag": 2794,
      "raced": 2795,
      "lights": 2796,
      "reminded": 2797,
      "admired": 2798,
      "ountain": 2799,
      "shone": 2800,
      "screen": 2801,
      "cabin": 2802,
      "comput": 2803,
      "fountain": 2804,
      "ado": 2805,
      "rushed": 2806,
      "showing": 2807,
      "fingers": 2808,
      "spoiled": 2809,
      "built": 2810,
      "brightly": 2811,
      "cleaning": 2812,
      "chose": 2813,
      "George": 2814,
      "independent": 2815,
      "cing": 2816,
      "dom": 2817,
      "post": 2818,
      "wealthy": 2819,
      "cod": 2820,
      "wrap": 2821,
      "mes": 2822,
      "practice": 2823,
      "liz": 2824,
      "Andy": 2825,
      "Al": 2826,
      "parrot": 2827,
      "fragile": 2828,
      "beak": 2829,
      "guard": 2830,
      "delighted": 2831,
      "ended": 2832,
      "tele": 2833,
      "march": 2834,
      "kicked": 2835,
      "solve": 2836,
      "Lola": 2837,
      "spinning": 2838,
      "themselves": 2839,
      "Soph": 2840,
      "load": 2841,
      "hun": 2842,
      "sof": 2843,
      "arrow": 2844,
      "keys": 2845,
      "velo": 2846,
      "nurse": 2847,
      "cate": 2848,
      "thirst": 2849,
      "playful": 2850,
      "picking": 2851,
      "crocod": 2852,
      "marble": 2853,
      "iver": 2854,
      "uring": 2855,
      "excitedly": 2856,
      "cheer": 2857,
      "inal": 2858,
      "upid": 2859,
      "wiped": 2860,
      "dge": 2861,
      "glo": 2862,
      "envelo": 2863,
      "dead": 2864,
      "Would": 2865,
      "stove": 2866,
      "ray": 2867,
      "irp": 2868,
      "searching": 2869,
      "serious": 2870,
      "tooth": 2871,
      "power": 2872,
      "erry": 2873,
      "scrat": 2874,
      "vi": 2875,
      "orig": 2876,
      "clum": 2877,
      "ti": 2878,
      "yet": 2879,
      "stupid": 2880,
      "Ale": 2881,
      "anut": 2882,
      "toast": 2883,
      "sauce": 2884,
      "cereal": 2885,
      "mole": 2886,
      "beetle": 2887,
      "bees": 2888,
      "hammer": 2889,
      "goose": 2890,
      "finding": 2891,
      "spend": 2892,
      "hairy": 2893,
      "delicate": 2894,
      "view": 2895,
      "original": 2896,
      "Tweety": 2897,
      "dough": 2898,
      "unknown": 2899,
      "polish": 2900,
      "cane": 2901,
      "Kim": 2902,
      "prize": 2903,
      "lli": 2904,
      "painted": 2905,
      "design": 2906,
      "stat": 2907,
      "steal": 2908,
      "snif": 2909,
      "metal": 2910,
      "wander": 2911,
      "thirsty": 2912,
      "forth": 2913,
      "biggest": 2914,
      "pota": 2915,
      "salad": 2916,
      "dove": 2917,
      "popcorn": 2918,
      "memor": 2919,
      "Alex": 2920,
      "nicely": 2921,
      "clumsy": 2922,
      "hay": 2923,
      "telling": 2924,
      "dreaming": 2925,
      "Toby": 2926,
      "fed": 2927,
      "noon": 2928,
      "carrying": 2929,
      "computer": 2930,
      "umbre": 2931,
      "birdie": 2932,
      "tem": 2933,
      "boats": 2934,
      "fork": 2935,
      "dull": 2936,
      "oc": 2937,
      "robe": 2938,
      "handle": 2939,
      "allowed": 2940,
      "cone": 2941,
      "bean": 2942,
      "regular": 2943,
      "news": 2944,
      "compass": 2945,
      "eze": 2946,
      "persist": 2947,
      "Mike": 2948,
      "hoop": 2949,
      "pumpkin": 2950,
      "careless": 2951,
      "ilty": 2952,
      "tern": 2953,
      "moder": 2954,
      "guilty": 2955,
      "return": 2956,
      "stops": 2957,
      "Grace": 2958,
      "cco": 2959,
      "numbers": 2960,
      "thunder": 2961,
      "desk": 2962,
      "seeds": 2963,
      "whispered": 2964,
      "those": 2965,
      "lizard": 2966,
      "scat": 2967,
      "reward": 2968,
      "pige": 2969,
      "vice": 2970,
      "ordin": 2971,
      "ordinary": 2972,
      "gum": 2973,
      "scatter": 2974,
      "bump": 2975,
      "pup": 2976,
      "half": 2977,
      "terrible": 2978,
      "Pat": 2979,
      "az": 2980,
      "leaving": 2981,
      "wire": 2982,
      "deliver": 2983,
      "aunt": 2984,
      "avo": 2985,
      "modern": 2986,
      "fan": 2987,
      "lolli": 2988,
      "peanut": 2989,
      "doesn": 2990,
      "pattern": 2991,
      "crocodile": 2992,
      "washed": 2993,
      "friendship": 2994,
      "print": 2995,
      "peeked": 2996,
      "jug": 2997,
      "rose": 2998,
      "shiver": 2999,
      "flex": 3000,
      "sparkled": 3001,
      "flute": 3002,
      "earth": 3003,
      "sink": 3004,
      "host": 3005,
      "imagined": 3006,
      "pirate": 3007,
      "ject": 3008,
      "Bye": 3009,
      "zip": 3010,
      "ingred": 3011,
      "!\".": 3012,
      "cupboard": 3013,
      "ingredient": 3014,
      "ges": 3015,
      "bel": 3016,
      "ugged": 3017,
      "jolly": 3018,
      "compassion": 3019,
      "illa": 3020,
      "popul": 3021,
      "sleeping": 3022,
      "popular": 3023,
      "lim": 3024,
      "coo": 3025,
      "holds": 3026,
      "envelope": 3027,
      "intell": 3028,
      "intellig": 3029,
      "stranger": 3030,
      "warned": 3031,
      "witch": 3032,
      "handed": 3033,
      "driving": 3034,
      "jacket": 3035,
      "persistent": 3036,
      "sudden": 3037,
      "tti": 3038,
      "env": 3039,
      "lives": 3040,
      "acorn": 3041,
      "thinking": 3042,
      "twirled": 3043,
      "flashlight": 3044,
      "missing": 3045,
      "growing": 3046,
      "sty": 3047,
      "flexible": 3048,
      "dust": 3049,
      "sunflower": 3050,
      "tied": 3051,
      "spilled": 3052,
      "cheap": 3053,
      "complete": 3054,
      "otter": 3055,
      "square": 3056,
      "rise": 3057,
      "hetti": 3058,
      "shut": 3059,
      "aghetti": 3060,
      "early": 3061,
      "travel": 3062,
      "beauty": 3063,
      "squash": 3064,
      "uncomfortable": 3065,
      "snuggled": 3066,
      "ines": 3067,
      "reading": 3068,
      "opens": 3069,
      "sorts": 3070,
      "isted": 3071,
      "towers": 3072,
      "dolphin": 3073,
      "ingredients": 3074,
      "lla": 3075,
      "spaghetti": 3076,
      "impressive": 3077,
      "umbrella": 3078,
      "jet": 3079,
      "toma": 3080,
      "doors": 3081,
      "rug": 3082,
      "cooking": 3083,
      "scale": 3084,
      "Polly": 3085,
      "est": 3086,
      "sses": 3087,
      "stage": 3088,
      "charm": 3089,
      "scoo": 3090,
      "ghost": 3091,
      "tled": 3092,
      "destro": 3093,
      "penny": 3094,
      "shocked": 3095,
      "planet": 3096,
      "crawl": 3097,
      "œWhat": 3098,
      "ations": 3099,
      "gling": 3100,
      "mailbox": 3101,
      "celebrate": 3102,
      "coco": 3103,
      "Ru": 3104,
      "barber": 3105,
      "harmless": 3106,
      "gloom": 3107,
      "destroy": 3108,
      "placed": 3109,
      "chance": 3110,
      "butterflies": 3111,
      "serve": 3112,
      "slides": 3113,
      "trum": 3114,
      "pasta": 3115,
      "œIt": 3116,
      "rece": 3117,
      "creatures": 3118,
      "ither": 3119,
      "refused": 3120,
      "pear": 3121,
      "crazy": 3122,
      "trap": 3123,
      "question": 3124,
      "counting": 3125,
      "bent": 3126,
      "advice": 3127,
      "discover": 3128,
      "hunter": 3129,
      "anx": 3130,
      "leo": 3131,
      "uddy": 3132,
      "truth": 3133,
      "humble": 3134,
      "nature": 3135,
      "aid": 3136,
      "cran": 3137,
      "Tweetie": 3138,
      "gasped": 3139,
      "bull": 3140,
      "statue": 3141,
      "Sandy": 3142,
      "cakes": 3143,
      "attic": 3144,
      "melon": 3145,
      "cards": 3146,
      "create": 3147,
      "cture": 3148,
      "given": 3149,
      "suppl": 3150,
      "intelligent": 3151,
      "anxious": 3152,
      "dug": 3153,
      "ages": 3154,
      "spell": 3155,
      "spring": 3156,
      "ignorant": 3157,
      "vol": 3158,
      "patch": 3159,
      "hive": 3160,
      "main": 3161,
      "fort": 3162,
      "Un": 3163,
      "uncle": 3164,
      "brighter": 3165,
      "ezed": 3166,
      "pale": 3167,
      "may": 3168,
      "œLetâ": 3169,
      "ince": 3170,
      "couldnâ": 3171,
      "stickers": 3172,
      "chasing": 3173,
      "wheels": 3174,
      "pants": 3175,
      "shoot": 3176,
      "disgust": 3177,
      "base": 3178,
      "windows": 3179,
      "letters": 3180,
      "anywhere": 3181,
      "thus": 3182,
      "Everything": 3183,
      "scooter": 3184,
      "ckets": 3185,
      "separ": 3186,
      "gloomy": 3187,
      "station": 3188,
      "verse": 3189,
      "competitive": 3190,
      "enthus": 3191,
      "speed": 3192,
      "tic": 3193,
      "itself": 3194,
      "neat": 3195,
      "pigeon": 3196,
      "ffle": 3197,
      "reci": 3198,
      "sadly": 3199,
      "jumps": 3200,
      "neighb": 3201,
      "spoke": 3202,
      "library": 3203,
      "ahead": 3204,
      "ctive": 3205,
      "Char": 3206,
      "cano": 3207,
      "crane": 3208,
      "badly": 3209,
      "sofa": 3210,
      "trash": 3211,
      "coll": 3212,
      "impat": 3213,
      "charming": 3214,
      "remain": 3215,
      "triang": 3216,
      "Millie": 3217,
      "beep": 3218,
      "stretched": 3219,
      "torn": 3220,
      "flour": 3221,
      "fearful": 3222,
      "trumpet": 3223,
      "pho": 3224,
      "engine": 3225,
      "leopar": 3226,
      "photo": 3227,
      "bathtub": 3228,
      "nuts": 3229,
      "gir": 3230,
      "pretending": 3231,
      "super": 3232,
      "ded": 3233,
      "waffle": 3234,
      "cau": 3235,
      "purse": 3236,
      "collar": 3237,
      "salt": 3238,
      "ience": 3239,
      "arian": 3240,
      "math": 3241,
      "restless": 3242,
      "trick": 3243,
      "value": 3244,
      "impatient": 3245,
      "inde": 3246,
      "iches": 3247,
      "Before": 3248,
      "Sophie": 3249,
      "Jerry": 3250,
      "hood": 3251,
      "names": 3252,
      "comb": 3253,
      "sandwiches": 3254,
      "practiced": 3255,
      "attra": 3256,
      "Bill": 3257,
      "stack": 3258,
      "gifted": 3259,
      "ribb": 3260,
      "Bear": 3261,
      "magnet": 3262,
      "hipp": 3263,
      "cauli": 3264,
      "pebble": 3265,
      "cush": 3266,
      "steps": 3267,
      "volcano": 3268,
      "meas": 3269,
      "parade": 3270,
      "aches": 3271,
      "Yay": 3272,
      "gor": 3273,
      "pony": 3274,
      "shield": 3275,
      "carto": 3276,
      "bandage": 3277,
      "disgusting": 3278,
      "œYes": 3279,
      "ino": 3280,
      "ley": 3281,
      "rice": 3282,
      "pepper": 3283,
      "further": 3284,
      "pian": 3285,
      "admi": 3286,
      "cube": 3287,
      "afternoon": 3288,
      "firework": 3289,
      "hurry": 3290,
      "scoop": 3291,
      "bri": 3292,
      "bet": 3293,
      "sity": 3294,
      "human": 3295,
      "decorate": 3296,
      "compassionate": 3297,
      "five": 3298,
      "stal": 3299,
      "asses": 3300,
      "nowhere": 3301,
      "envious": 3302,
      "tire": 3303,
      "yaw": 3304,
      "ener": 3305,
      "piano": 3306,
      "mill": 3307,
      "ceed": 3308,
      "shaking": 3309,
      "skip": 3310,
      "cli": 3311,
      "starts": 3312,
      "jeep": 3313,
      "cooked": 3314,
      "admire": 3315,
      "iest": 3316,
      "rub": 3317,
      "split": 3318,
      "package": 3319,
      "erable": 3320,
      "unk": 3321,
      "miserable": 3322,
      "fis": 3323,
      "cact": 3324,
      "drop": 3325,
      "Buddy": 3326,
      "aur": 3327,
      "dess": 3328,
      "hook": 3329,
      "brace": 3330,
      "gain": 3331,
      "deaf": 3332,
      "impro": 3333,
      "restaur": 3334,
      "anyway": 3335,
      "distant": 3336,
      "cauliflower": 3337,
      "kers": 3338,
      "carpet": 3339,
      "cricket": 3340,
      "cocoa": 3341,
      "older": 3342,
      "leopard": 3343,
      "io": 3344,
      "golf": 3345,
      "perform": 3346,
      "bin": 3347,
      "ffin": 3348,
      "nobody": 3349,
      "alert": 3350,
      "clu": 3351,
      "shoe": 3352,
      "ccoli": 3353,
      "tray": 3354,
      "filthy": 3355,
      "rules": 3356,
      "Or": 3357,
      "distur": 3358,
      "gn": 3359,
      "shouts": 3360,
      "restaurant": 3361,
      "Whis": 3362,
      "sticker": 3363,
      "cel": 3364,
      "wallet": 3365,
      "cats": 3366,
      "drawer": 3367,
      "jokes": 3368,
      "Maria": 3369,
      "wheat": 3370,
      "pressed": 3371,
      "club": 3372,
      "succeed": 3373,
      "octop": 3374,
      "camp": 3375,
      "zi": 3376,
      "paws": 3377,
      "Red": 3378,
      "leash": 3379,
      "shroom": 3380,
      "helpless": 3381,
      "Sm": 3382,
      "sport": 3383,
      "soldier": 3384,
      "aff": 3385,
      "ummer": 3386,
      "giggle": 3387,
      "hippo": 3388,
      "oy": 3389,
      "tion": 3390,
      "anda": 3391,
      "silver": 3392,
      "tick": 3393,
      "attractive": 3394,
      "octopus": 3395,
      "pun": 3396,
      "seal": 3397,
      "ief": 3398,
      "cactus": 3399,
      "sheet": 3400,
      "cows": 3401,
      "bounced": 3402,
      "gorilla": 3403,
      "laser": 3404,
      "vine": 3405,
      "gging": 3406,
      "ubby": 3407,
      "stic": 3408,
      "tube": 3409,
      "bracelet": 3410,
      "ween": 3411,
      "mushroom": 3412,
      "Annie": 3413,
      "cycle": 3414,
      "spir": 3415,
      "pengu": 3416,
      "broccoli": 3417,
      "candle": 3418,
      "Did": 3419,
      "ador": 3420,
      "goal": 3421,
      "clapping": 3422,
      "vator": 3423,
      "Harry": 3424,
      "size": 3425,
      "rolling": 3426,
      "dessert": 3427,
      "knot": 3428,
      "oat": 3429,
      "switch": 3430,
      "sailor": 3431,
      "elevator": 3432,
      "Hen": 3433,
      "mission": 3434,
      "curtain": 3435,
      "meow": 3436,
      "sweater": 3437,
      "barrel": 3438,
      "listening": 3439,
      "repair": 3440,
      "happier": 3441,
      "cob": 3442,
      "needle": 3443,
      "track": 3444,
      "aked": 3445,
      "stirred": 3446,
      "Cl": 3447,
      "helmet": 3448,
      "stared": 3449,
      "olin": 3450,
      "exper": 3451,
      "icycle": 3452,
      "microphone": 3453,
      "reco": 3454,
      "hall": 3455,
      "modest": 3456,
      "quite": 3457,
      "pulls": 3458,
      "raven": 3459,
      "colours": 3460,
      "pilot": 3461,
      "por": 3462,
      "sle": 3463,
      "repe": 3464,
      "hedge": 3465,
      "counter": 3466,
      "celery": 3467,
      "Bunny": 3468,
      "bicycle": 3469,
      "ost": 3470,
      "wever": 3471,
      "organize": 3472,
      "Charlie": 3473,
      "Whiskers": 3474,
      "iron": 3475,
      "chubby": 3476,
      "treasures": 3477,
      "turkey": 3478,
      "avoc": 3479,
      "rod": 3480,
      "aroo": 3481,
      "angaroo": 3482,
      "harsh": 3483,
      "screw": 3484,
      "lollipop": 3485,
      "holes": 3486,
      "pushing": 3487,
      "lively": 3488,
      "recogn": 3489,
      "backpack": 3490,
      "cond": 3491,
      "œThat": 3492,
      "inking": 3493,
      "avail": 3494,
      "adorable": 3495,
      "Mag": 3496,
      "somewhere": 3497,
      "grabs": 3498,
      "wishes": 3499,
      "dive": 3500,
      "thread": 3501,
      "lions": 3502,
      "object": 3503,
      "Is": 3504,
      "kangaroo": 3505,
      "didnâ": 3506,
      "riding": 3507,
      "quar": 3508,
      "swinging": 3509,
      "sym": 3510,
      "country": 3511,
      "stretch": 3512,
      "notebook": 3513,
      "troph": 3514,
      "support": 3515,
      "frowned": 3516,
      "behave": 3517,
      "bol": 3518,
      "starting": 3519,
      "speak": 3520,
      "cooler": 3521,
      "finds": 3522,
      "barking": 3523,
      "castles": 3524,
      "point": 3525,
      "swee": 3526,
      "paid": 3527,
      "shopkeeper": 3528,
      "respectful": 3529,
      "available": 3530,
      "send": 3531,
      "These": 3532,
      "message": 3533,
      "Sp": 3534,
      "mug": 3535,
      "resist": 3536,
      "radio": 3537,
      "Kate": 3538,
      "roared": 3539,
      "pushes": 3540,
      "luck": 3541,
      "summer": 3542,
      "ucked": 3543,
      "lightning": 3544,
      "football": 3545,
      "Brownie": 3546,
      "Snow": 3547,
      "thief": 3548,
      "learnt": 3549,
      "knock": 3550,
      "troubled": 3551,
      "Henry": 3552,
      "Lilly": 3553,
      "ea": 3554,
      "cap": 3555,
      "papers": 3556,
      "leton": 3557,
      "keleton": 3558,
      "hadn": 3559,
      "fee": 3560,
      "axe": 3561,
      "sort": 3562,
      "bikes": 3563,
      "rhino": 3564,
      "onion": 3565,
      "forgave": 3566,
      "muffin": 3567,
      "appl": 3568,
      "symbol": 3569,
      "bears": 3570,
      "crystal": 3571,
      "eraser": 3572,
      "dishes": 3573,
      "tripped": 3574,
      "frame": 3575,
      "gro": 3576,
      "gie": 3577,
      "iastic": 3578,
      "enthusiastic": 3579,
      "offee": 3580,
      "ache": 3581,
      "zzy": 3582,
      "rend": 3583,
      "aled": 3584,
      "buzz": 3585,
      "trains": 3586,
      "stume": 3587,
      "either": 3588,
      "lter": 3589,
      "costume": 3590,
      "fireman": 3591,
      "scold": 3592,
      "belt": 3593,
      "raining": 3594,
      "visited": 3595,
      "Smith": 3596,
      "laun": 3597,
      "evening": 3598,
      "monkeys": 3599,
      "crow": 3600,
      "Papa": 3601,
      "shelter": 3602,
      "Bun": 3603,
      "meat": 3604,
      "poem": 3605,
      "shovel": 3606,
      "painter": 3607,
      "glasses": 3608,
      "zoomed": 3609,
      "lk": 3610,
      "yach": 3611,
      "sandbox": 3612,
      "astic": 3613,
      "airport": 3614,
      "triangle": 3615,
      "skeleton": 3616,
      "igator": 3617,
      "marched": 3618,
      "zebra": 3619,
      "James": 3620,
      "teas": 3621,
      "neighbour": 3622,
      "hoping": 3623,
      "trem": 3624,
      "checked": 3625,
      "energy": 3626,
      "tuna": 3627,
      "boots": 3628,
      "spirit": 3629,
      "trophy": 3630,
      "laundry": 3631,
      "ckey": 3632,
      "chan": 3633,
      "leaned": 3634,
      "cushion": 3635,
      "ostrich": 3636,
      "resc": 3637,
      "choice": 3638,
      "thanks": 3639,
      "rescue": 3640,
      "Flo": 3641,
      "bur": 3642,
      "mas": 3643,
      "alive": 3644,
      "complain": 3645,
      "appreci": 3646,
      "grapes": 3647,
      "mixer": 3648,
      "mild": 3649,
      "licop": 3650,
      "bbles": 3651,
      "powder": 3652,
      "licopter": 3653,
      "task": 3654,
      "theater": 3655,
      "climbing": 3656,
      "fields": 3657,
      "Lee": 3658,
      "shrimp": 3659,
      "yacht": 3660,
      "Tony": 3661,
      "hockey": 3662,
      "reef": 3663,
      "tax": 3664,
      "pole": 3665,
      "tear": 3666,
      "chalk": 3667,
      "alligator": 3668,
      "inclu": 3669,
      "sprink": 3670,
      "helicopter": 3671,
      "theart": 3672,
      "chain": 3673,
      "Po": 3674,
      "mask": 3675,
      "drawings": 3676,
      "film": 3677,
      "coffee": 3678,
      "peek": 3679,
      "tricks": 3680,
      "judge": 3681,
      "chanic": 3682,
      "Jess": 3683,
      "comet": 3684,
      "violin": 3685,
      "aero": 3686,
      "€“": 3687,
      "putting": 3688,
      "web": 3689,
      "mechanic": 3690,
      "surrend": 3691,
      "Thanks": 3692,
      "taxi": 3693,
      "azz": 3694,
      "edy": 3695,
      "una": 3696,
      "skill": 3697,
      "affe": 3698,
      "Danny": 3699,
      "Baby": 3700,
      "twist": 3701,
      "cardboard": 3702,
      "sweetheart": 3703,
      "falling": 3704,
      "lang": 3705,
      "unlock": 3706,
      "haircut": 3707,
      "lands": 3708,
      "scope": 3709,
      "stuffed": 3710,
      "langu": 3711,
      "reinde": 3712,
      "wag": 3713,
      "danger": 3714,
      "Su": 3715,
      "sock": 3716,
      "peach": 3717,
      "Bet": 3718,
      "mama": 3719,
      "oe": 3720,
      "pipe": 3721,
      "unhappy": 3722,
      "tap": 3723,
      "comm": 3724,
      "inse": 3725,
      "journ": 3726,
      "between": 3727,
      "iling": 3728,
      "stamp": 3729,
      "ceros": 3730,
      "raft": 3731,
      "reeze": 3732,
      "umber": 3733,
      "bubble": 3734,
      "porch": 3735,
      "dar": 3736,
      "armchair": 3737,
      "kayak": 3738,
      "enny": 3739,
      "beam": 3740,
      "closely": 3741,
      "perfectly": 3742,
      "shakes": 3743,
      "strawberry": 3744,
      "fisher": 3745,
      "ccer": 3746,
      "soil": 3747,
      "softly": 3748,
      "pastry": 3749,
      "enter": 3750,
      "mule": 3751,
      "hotel": 3752,
      "First": 3753,
      "oil": 3754,
      "sau": 3755,
      "soccer": 3756,
      "rhinoceros": 3757,
      "reindeer": 3758,
      "pit": 3759,
      "resp": 3760,
      "shoo": 3761,
      "journal": 3762,
      "hut": 3763,
      "jellyfish": 3764,
      "oyster": 3765,
      "petal": 3766,
      "sunset": 3767,
      "quit": 3768,
      "breaks": 3769,
      "cups": 3770,
      "shade": 3771,
      "giraffe": 3772,
      "attent": 3773,
      "apologized": 3774,
      "kitty": 3775,
      "seeing": 3776,
      "awe": 3777,
      "erc": 3778,
      "ides": 3779,
      "Because": 3780,
      "celebrated": 3781,
      "marry": 3782,
      "minute": 3783,
      "bulance": 3784,
      "waving": 3785,
      "ambulance": 3786,
      "sneak": 3787,
      "Clara": 3788,
      "smells": 3789,
      "kingdom": 3790,
      "motorcycle": 3791,
      "quarrel": 3792,
      "drops": 3793,
      "flame": 3794,
      "comed": 3795,
      "cable": 3796,
      "pted": 3797,
      "medal": 3798,
      "welcomed": 3799,
      "diary": 3800,
      "page": 3801,
      "bulb": 3802,
      "ison": 3803,
      "bey": 3804,
      "seum": 3805,
      "exerc": 3806,
      "museum": 3807,
      "shouldn": 3808,
      "created": 3809,
      "lime": 3810,
      "feelings": 3811,
      "fauce": 3812,
      "Instead": 3813,
      "attention": 3814,
      "golden": 3815,
      "ding": 3816,
      "chickens": 3817,
      "grocer": 3818,
      "blowing": 3819,
      "barks": 3820,
      "pas": 3821,
      "..": 3822,
      "urt": 3823,
      "shower": 3824,
      "cherries": 3825,
      "Car": 3826,
      "heads": 3827,
      "crib": 3828,
      "faucet": 3829,
      "Ros": 3830,
      "steak": 3831,
      "headed": 3832,
      "forgotten": 3833,
      "winter": 3834,
      "palace": 3835,
      "ait": 3836,
      "died": 3837,
      "twink": 3838,
      "Rosie": 3839,
      "vroom": 3840,
      "poss": 3841,
      "frogs": 3842,
      "bananas": 3843,
      "glove": 3844,
      "vend": 3845,
      "flea": 3846,
      "lawy": 3847,
      "sla": 3848,
      "iture": 3849,
      "urniture": 3850,
      "freez": 3851,
      "fisherman": 3852,
      "panda": 3853,
      "cuss": 3854,
      "Ste": 3855,
      "furniture": 3856,
      "weather": 3857,
      "maze": 3858,
      "fishing": 3859,
      "trail": 3860,
      "comfort": 3861,
      "presents": 3862,
      "Zoe": 3863,
      "baking": 3864,
      "basketball": 3865,
      "breeze": 3866,
      "swung": 3867,
      "ction": 3868,
      "squi": 3869,
      "crash": 3870,
      "Maggie": 3871,
      "Tr": 3872,
      "napkin": 3873,
      "pastel": 3874,
      "aeroplane": 3875,
      "discuss": 3876,
      "ppery": 3877,
      "imagine": 3878,
      "wife": 3879,
      "fac": 3880,
      "rubber": 3881,
      "vendor": 3882,
      "Rac": 3883,
      "sting": 3884,
      "slippery": 3885,
      "Kat": 3886,
      "ense": 3887,
      "nes": 3888,
      "potato": 3889,
      "cell": 3890,
      "short": 3891,
      "trave": 3892,
      "imagination": 3893,
      "petals": 3894,
      "chy": 3895,
      "offer": 3896,
      "shoulder": 3897,
      "dancer": 3898,
      "Rachel": 3899,
      "stable": 3900,
      "memories": 3901,
      "slept": 3902,
      "May": 3903,
      "pine": 3904,
      "eagerly": 3905,
      "applau": 3906,
      "weigh": 3907,
      "poke": 3908,
      "squirrels": 3909,
      "chim": 3910,
      "mosqui": 3911,
      "zipper": 3912,
      "fant": 3913,
      "inarian": 3914,
      "washer": 3915,
      "terinarian": 3916,
      "cheek": 3917,
      "veterinarian": 3918,
      "dressed": 3919,
      "parent": 3920,
      "mystery": 3921,
      "shouting": 3922,
      "avocado": 3923,
      "œYou": 3924,
      "izes": 3925,
      "planes": 3926,
      "lawyer": 3927,
      "umb": 3928,
      "meeting": 3929,
      "unpack": 3930,
      "loop": 3931,
      "classroom": 3932,
      "dishwasher": 3933,
      "language": 3934,
      "novel": 3935,
      "ents": 3936,
      "donâ": 3937,
      "magaz": 3938,
      "throws": 3939,
      "sprayed": 3940,
      "ignored": 3941,
      "plastic": 3942,
      "player": 3943,
      "tress": 3944,
      "horses": 3945,
      "baseball": 3946,
      "Co": 3947,
      "reve": 3948,
      "second": 3949,
      "wool": 3950,
      "separate": 3951,
      "trod": 3952,
      "aking": 3953,
      "introd": 3954,
      "streng": 3955,
      "breathe": 3956,
      "microscope": 3957,
      "fog": 3958,
      "glowing": 3959,
      "invest": 3960,
      "skirt": 3961,
      "yogurt": 3962,
      "sailing": 3963,
      "belongs": 3964,
      "pirates": 3965,
      "accepted": 3966,
      "strength": 3967,
      "oking": 3968,
      "hanging": 3969,
      "radish": 3970,
      "God": 3971,
      "Miss": 3972,
      "argue": 3973,
      "weep": 3974,
      "happens": 3975,
      "holid": 3976,
      "lawn": 3977,
      "investig": 3978,
      "holiday": 3979,
      "mop": 3980,
      "steam": 3981,
      "attach": 3982,
      "chimney": 3983,
      "sir": 3984,
      "worth": 3985,
      "toil": 3986,
      "fireplace": 3987,
      "straight": 3988,
      "sniffed": 3989,
      "staff": 3990,
      "ceiling": 3991,
      "served": 3992,
      "superhero": 3993,
      "toilet": 3994,
      "Iâ": 3995,
      "slice": 3996,
      "chirp": 3997,
      "capt": 3998,
      "bury": 3999,
      "skull": 4000,
      "disappear": 4001,
      "blankets": 4002,
      "Wait": 4003,
      "ris": 4004,
      "since": 4005,
      "veil": 4006,
      "chor": 4007,
      "dear": 4008,
      "prevent": 4009,
      "Wel": 4010,
      "grin": 4011,
      "moves": 4012,
      "writing": 4013,
      "relaxed": 4014,
      "Welcome": 4015,
      "Each": 4016,
      "wipe": 4017,
      "greedy": 4018,
      "surround": 4019,
      "points": 4020,
      "collected": 4021,
      "burned": 4022,
      "experience": 4023,
      "puddles": 4024,
      "imi": 4025,
      "accept": 4026,
      "kis": 4027,
      "chur": 4028,
      "mattress": 4029,
      "alarm": 4030,
      "medi": 4031,
      "bouncing": 4032,
      "church": 4033,
      "yield": 4034,
      "pru": 4035,
      "folder": 4036,
      "rake": 4037,
      "creek": 4038,
      "mistakes": 4039,
      "tomato": 4040,
      "Have": 4041,
      "apr": 4042,
      "inked": 4043,
      "quack": 4044,
      "throwing": 4045,
      "Ruby": 4046,
      "possible": 4047,
      "tip": 4048,
      "popped": 4049,
      "crossed": 4050,
      "temple": 4051,
      "factory": 4052,
      "asis": 4053,
      "sticky": 4054,
      "flapped": 4055,
      "investigate": 4056,
      "Sad": 4057,
      "oasis": 4058,
      "ornam": 4059,
      "fortun": 4060,
      "rush": 4061,
      "penguin": 4062,
      "cham": 4063,
      "freezer": 4064,
      "si": 4065,
      "mediately": 4066,
      "cts": 4067,
      "fought": 4068,
      "regre": 4069,
      "argu": 4070,
      "model": 4071,
      "opera": 4072,
      "eaten": 4073,
      "shrink": 4074,
      "shrugged": 4075,
      "Mimi": 4076,
      "hopes": 4077,
      "improve": 4078,
      "married": 4079,
      "blackboard": 4080,
      "warning": 4081,
      "scolded": 4082,
      "surrender": 4083,
      "Sun": 4084,
      "float": 4085,
      "cared": 4086,
      "hic": 4087,
      "entered": 4088,
      "Joy": 4089,
      "hon": 4090,
      "lend": 4091,
      "ox": 4092,
      "igloo": 4093,
      "bother": 4094,
      "bathe": 4095,
      "Tina": 4096,
      "ups": 4097,
      "spear": 4098,
      "gym": 4099,
      "apart": 4100,
      "vehic": 4101,
      "wardrobe": 4102,
      "crawling": 4103,
      "itâ": 4104,
      "regret": 4105,
      "appro": 4106,
      "True": 4107,
      "iv": 4108,
      "vision": 4109,
      "anchor": 4110,
      "below": 4111,
      "blinked": 4112,
      "follows": 4113,
      "Penny": 4114,
      "sna": 4115,
      "œItâ": 4116,
      "tucked": 4117,
      "Not": 4118,
      "blueberries": 4119,
      "claw": 4120,
      "However": 4121,
      "yoga": 4122,
      "bang": 4123,
      "rooms": 4124,
      "lumber": 4125,
      "display": 4126,
      "pinch": 4127,
      "calls": 4128,
      "video": 4129,
      "lier": 4130,
      "bookcase": 4131,
      "mint": 4132,
      "wags": 4133,
      "fortunately": 4134,
      "ason": 4135,
      "bbie": 4136,
      "television": 4137,
      "mand": 4138,
      "recomm": 4139,
      "sters": 4140,
      "makeup": 4141,
      "amazem": 4142,
      "squeezed": 4143,
      "amazement": 4144,
      "Happ": 4145,
      "oak": 4146,
      "request": 4147,
      "grill": 4148,
      "bby": 4149,
      "uniform": 4150,
      "padd": 4151,
      "demand": 4152,
      "miner": 4153,
      "mm": 4154,
      "sunglasses": 4155,
      "ticket": 4156,
      "Spike": 4157,
      "lab": 4158,
      "suff": 4159,
      "sizes": 4160,
      "kisses": 4161,
      "helper": 4162,
      "quietly": 4163,
      "easily": 4164,
      "kneel": 4165,
      "Freddy": 4166,
      "'.": 4167,
      "vac": 4168,
      "melt": 4169,
      "apron": 4170,
      "junk": 4171,
      "chess": 4172,
      "mustache": 4173,
      "splashing": 4174,
      "file": 4175,
      "zor": 4176,
      "reaches": 4177,
      "caring": 4178,
      "ggy": 4179,
      "squeeze": 4180,
      "telephone": 4181,
      "Luck": 4182,
      "yucky": 4183,
      "hurting": 4184,
      "fume": 4185,
      "Snowy": 4186,
      "razor": 4187,
      "sigh": 4188,
      "surprises": 4189,
      "sparkle": 4190,
      "beef": 4191,
      "scattered": 4192,
      "omed": 4193,
      "label": 4194,
      "perfume": 4195,
      "safety": 4196,
      "sparkling": 4197,
      "swamp": 4198,
      "delay": 4199,
      "cliff": 4200,
      "magazine": 4201,
      "Milly": 4202,
      "waste": 4203,
      "pected": 4204,
      "keeping": 4205,
      "musician": 4206,
      "trusted": 4207,
      "candles": 4208,
      "fuel": 4209,
      "lemonade": 4210,
      "incre": 4211,
      "coats": 4212,
      "cabinet": 4213,
      "mist": 4214,
      "tug": 4215,
      "rail": 4216,
      "llen": 4217,
      "letting": 4218,
      "nce": 4219,
      "fastest": 4220,
      "understanding": 4221,
      "matches": 4222,
      "couraged": 4223,
      "supply": 4224,
      "Steve": 4225,
      "ms": 4226,
      "whist": 4227,
      "Luckily": 4228,
      "Qu": 4229,
      "chairs": 4230,
      "isn": 4231,
      "decis": 4232,
      "spending": 4233,
      "ringing": 4234,
      "mosquito": 4235,
      "mob": 4236,
      "dresses": 4237,
      "cus": 4238,
      "crun": 4239,
      "reverse": 4240,
      "Its": 4241,
      "icing": 4242,
      "harbor": 4243,
      "knob": 4244,
      "battery": 4245,
      "saving": 4246,
      "wandered": 4247,
      "auto": 4248,
      "skills": 4249,
      "thumb": 4250,
      "raise": 4251,
      "settled": 4252,
      "People": 4253,
      "Sha": 4254,
      "oper": 4255,
      "laught": 4256,
      "bravely": 4257,
      "hills": 4258,
      "Luna": 4259,
      "dried": 4260,
      "ometer": 4261,
      "buck": 4262,
      "ctions": 4263,
      "moments": 4264,
      "boot": 4265,
      "quiz": 4266,
      "members": 4267,
      "growled": 4268,
      "automob": 4269,
      "weap": 4270,
      "praised": 4271,
      "Buzz": 4272,
      "dire": 4273,
      "earlier": 4274,
      "following": 4275,
      "vanished": 4276,
      "chamber": 4277,
      "Happy": 4278,
      "wigg": 4279,
      "poo": 4280,
      "recei": 4281,
      "laughter": 4282,
      "remove": 4283,
      "therm": 4284,
      "coal": 4285,
      "trade": 4286,
      "taller": 4287,
      "spots": 4288,
      "calend": 4289,
      "flutter": 4290,
      "plates": 4291,
      "claws": 4292,
      "thermometer": 4293,
      "calendar": 4294,
      "prepar": 4295,
      "spade": 4296,
      "fallen": 4297,
      "missile": 4298,
      "puzzles": 4299,
      "passport": 4300,
      "infant": 4301,
      "ribbon": 4302,
      "King": 4303,
      "shot": 4304,
      "uggling": 4305,
      "jewels": 4306,
      "Katie": 4307,
      "wine": 4308,
      "anna": 4309,
      "invit": 4310,
      "strawberries": 4311,
      "immediately": 4312,
      "hearts": 4313,
      "destination": 4314,
      "structure": 4315,
      "Je": 4316,
      "snap": 4317,
      "nore": 4318,
      "licks": 4319,
      "warmth": 4320,
      "muscle": 4321,
      "mailman": 4322,
      "surf": 4323,
      "shooting": 4324,
      "blouse": 4325,
      "perfor": 4326,
      "hardly": 4327,
      "beamed": 4328,
      "balanc": 4329,
      "solved": 4330,
      "scooped": 4331,
      "poison": 4332,
      "sham": 4333,
      "difference": 4334,
      "Ex": 4335,
      "€.": 4336,
      "ideas": 4337,
      "cuddled": 4338,
      "destroyed": 4339,
      "Everyday": 4340,
      "admir": 4341,
      "buried": 4342,
      "shampoo": 4343,
      "bill": 4344,
      "ining": 4345,
      "lotion": 4346,
      "sandcastle": 4347,
      "poked": 4348,
      "perm": 4349,
      "cherry": 4350,
      "beans": 4351,
      "ium": 4352,
      "ival": 4353,
      "orang": 4354,
      "insisted": 4355,
      "oranges": 4356,
      "dic": 4357,
      "blood": 4358,
      "tornado": 4359,
      "captain": 4360,
      "snapped": 4361,
      "restore": 4362,
      "pride": 4363,
      "prepare": 4364,
      "inky": 4365,
      "leak": 4366,
      "omeday": 4367,
      "tol": 4368,
      "lic": 4369,
      "worms": 4370,
      "yawned": 4371,
      "drain": 4372,
      "refri": 4373,
      "izard": 4374,
      "conf": 4375,
      "gerator": 4376,
      "tionary": 4377,
      "punish": 4378,
      "exercise": 4379,
      "refrigerator": 4380,
      "pages": 4381,
      "ues": 4382,
      "invite": 4383,
      "cartoon": 4384,
      "dictionary": 4385,
      "pis": 4386,
      "lia": 4387,
      "pistol": 4388,
      "myself": 4389,
      "washing": 4390,
      "panic": 4391,
      "Cat": 4392,
      "ignore": 4393,
      "ady": 4394,
      "permission": 4395,
      "achie": 4396,
      "tongue": 4397,
      "Chirp": 4398,
      "floating": 4399,
      "disturb": 4400,
      "automobile": 4401,
      "gers": 4402,
      "jazz": 4403,
      "rabbits": 4404,
      "brain": 4405,
      "floated": 4406,
      "uggage": 4407,
      "received": 4408,
      "luggage": 4409,
      "wed": 4410,
      "sneeze": 4411,
      "jewelry": 4412,
      "Ma": 4413,
      "someday": 4414,
      "alright": 4415,
      "palm": 4416,
      "vacation": 4417,
      "Ouch": 4418,
      "none": 4419,
      "sub": 4420,
      "dam": 4421,
      "daisy": 4422,
      "unite": 4423,
      "gear": 4424,
      "bleed": 4425,
      "setting": 4426,
      "airplane": 4427,
      "asht": 4428,
      "teaching": 4429,
      "ashtray": 4430,
      "plays": 4431,
      "climbs": 4432,
      "weeks": 4433,
      "bumped": 4434,
      "Cla": 4435,
      "Liz": 4436,
      "stad": 4437,
      "upstairs": 4438,
      "stadium": 4439,
      "Yuck": 4440,
      "digg": 4441,
      "fy": 4442,
      "hits": 4443,
      "parts": 4444,
      "homes": 4445,
      "chores": 4446,
      "tutor": 4447,
      "examine": 4448,
      "measured": 4449,
      "tide": 4450,
      "digging": 4451,
      "begged": 4452,
      "chir": 4453,
      "comp": 4454,
      "offic": 4455,
      "provide": 4456,
      "patiently": 4457,
      "melted": 4458,
      "replace": 4459,
      "Ha": 4460,
      "Ol": 4461,
      "dare": 4462,
      "whip": 4463,
      "sparkles": 4464,
      "believed": 4465,
      "teaspo": 4466,
      "vehicle": 4467,
      "equ": 4468,
      "wizard": 4469,
      "fest": 4470,
      "bling": 4471,
      "approached": 4472,
      "encouraged": 4473,
      "hers": 4474,
      "antly": 4475,
      "Someone": 4476,
      "valley": 4477,
      "nie": 4478,
      "struggling": 4479,
      "collecting": 4480,
      "price": 4481,
      "Unfortunately": 4482,
      "jail": 4483,
      "nies": 4484,
      "lip": 4485,
      "deeper": 4486,
      "pulling": 4487,
      "buzzing": 4488,
      "Tin": 4489,
      "ef": 4490,
      "ging": 4491,
      "gifts": 4492,
      "signs": 4493,
      "appreciate": 4494,
      "Poppy": 4495,
      "insect": 4496,
      "asc": 4497,
      "root": 4498,
      "Goodbye": 4499,
      "lest": 4500,
      "Rob": 4501,
      "tore": 4502,
      "neighborhood": 4503,
      "collection": 4504,
      "sits": 4505,
      "zipped": 4506,
      "glowed": 4507,
      "cobweb": 4508,
      "festival": 4509,
      "obey": 4510,
      "osed": 4511,
      "supposed": 4512,
      "mall": 4513,
      "compl": 4514,
      "famil": 4515,
      "thrilled": 4516,
      "score": 4517,
      "bricks": 4518,
      "For": 4519,
      "Frank": 4520,
      "jogging": 4521,
      "paused": 4522,
      "mention": 4523,
      "bookshelf": 4524,
      "sprinkles": 4525,
      "stomach": 4526,
      "burning": 4527,
      "sip": 4528,
      "hesit": 4529,
      "girls": 4530,
      "disco": 4531,
      "grape": 4532,
      "rhy": 4533,
      "billboard": 4534,
      "bak": 4535,
      "iers": 4536,
      "decorations": 4537,
      "license": 4538,
      "Ollie": 4539,
      "teaspoon": 4540,
      "discovery": 4541,
      "bab": 4542,
      "ipping": 4543,
      "bbled": 4544,
      "contain": 4545,
      "bites": 4546,
      "repeat": 4547,
      "weapon": 4548,
      "newspaper": 4549,
      "elephants": 4550,
      "uggle": 4551,
      "chirping": 4552,
      "fasc": 4553,
      "wherever": 4554,
      "Remember": 4555,
      "patterns": 4556,
      "crunchy": 4557,
      "Ok": 4558,
      "lily": 4559,
      "olive": 4560,
      "vy": 4561,
      "sunlight": 4562,
      "proper": 4563,
      "massage": 4564,
      "toe": 4565,
      "bathrobe": 4566,
      "Ready": 4567,
      "Abig": 4568,
      "hanger": 4569,
      "sausage": 4570,
      "Abigail": 4571,
      "sunrise": 4572,
      "birdcage": 4573,
      "soldiers": 4574,
      "Exc": 4575,
      "lick": 4576,
      "chip": 4577,
      "scur": 4578,
      "sliding": 4579,
      "Fro": 4580,
      "wre": 4581,
      "safar": 4582,
      "fied": 4583,
      "Nut": 4584,
      "manage": 4585,
      "ranch": 4586,
      "twisted": 4587,
      "meowed": 4588,
      "whistling": 4589,
      "fut": 4590,
      "beg": 4591,
      "laid": 4592,
      "watered": 4593,
      "velvet": 4594,
      "actually": 4595,
      "attached": 4596,
      "bun": 4597,
      "flood": 4598,
      "problems": 4599,
      "curled": 4600,
      "decision": 4601,
      "fascin": 4602,
      "future": 4603,
      "socks": 4604,
      "rang": 4605,
      "comfy": 4606,
      "remained": 4607,
      "respons": 4608,
      "grocery": 4609,
      "chirped": 4610,
      "œNo": 4611,
      "pigs": 4612,
      "folded": 4613,
      "Betsy": 4614,
      "lecture": 4615,
      "worse": 4616,
      "emer": 4617,
      "marbles": 4618,
      "Gre": 4619,
      "Mor": 4620,
      "mitten": 4621,
      "sore": 4622,
      "urge": 4623,
      "grey": 4624,
      "crashed": 4625,
      "flav": 4626,
      "scratch": 4627,
      "watches": 4628,
      "drinking": 4629,
      "during": 4630,
      "observe": 4631,
      "rested": 4632,
      "potatoes": 4633,
      "suffer": 4634,
      "beat": 4635,
      "blueberry": 4636,
      "ornament": 4637,
      "sed": 4638,
      "racing": 4639,
      "fixing": 4640,
      "tease": 4641,
      "freshed": 4642,
      "measuring": 4643,
      "company": 4644,
      "safari": 4645,
      "rum": 4646,
      "refreshed": 4647,
      "quake": 4648,
      "receive": 4649,
      "Tiny": 4650,
      "Mo": 4651,
      "whistled": 4652,
      "agreement": 4653,
      "grinned": 4654,
      "Jam": 4655,
      "nation": 4656,
      "sings": 4657,
      "prayed": 4658,
      "esca": 4659,
      "ordered": 4660,
      "fireworks": 4661,
      "remembers": 4662,
      "ddy": 4663,
      "hurri": 4664,
      "earthquake": 4665,
      "operation": 4666,
      "rhyth": 4667,
      "!'": 4668,
      "Mmm": 4669,
      "tles": 4670,
      "hated": 4671,
      "pets": 4672,
      "stom": 4673,
      "marching": 4674,
      "buildings": 4675,
      "seats": 4676,
      "ities": 4677,
      "lets": 4678,
      "unic": 4679,
      "planted": 4680,
      "Hoppy": 4681,
      "stam": 4682,
      "raised": 4683,
      "monsters": 4684,
      "By": 4685,
      "Ke": 4686,
      "Beth": 4687,
      "recognized": 4688,
      "doggy": 4689,
      "skipping": 4690,
      "works": 4691,
      "tracks": 4692,
      "satis": 4693,
      "invitation": 4694,
      "Anne": 4695,
      "hurricane": 4696,
      "Like": 4697,
      "easier": 4698,
      "ising": 4699,
      "surrounded": 4700,
      "buckle": 4701,
      "loe": 4702,
      "poppy": 4703,
      "chewed": 4704,
      "memory": 4705,
      "heat": 4706,
      "stitch": 4707,
      "ipment": 4708,
      "brick": 4709,
      "escaped": 4710,
      "zag": 4711,
      "!\",": 4712,
      "equipment": 4713,
      "bank": 4714,
      "waits": 4715,
      "mountains": 4716,
      "oats": 4717,
      "Sharing": 4718,
      "Zoom": 4719,
      "event": 4720,
      "zero": 4721,
      "hate": 4722,
      "owned": 4723,
      "continue": 4724,
      "cartoons": 4725,
      "\",": 4726,
      "onwards": 4727,
      "sidewalk": 4728,
      "disagreed": 4729,
      "universe": 4730,
      "clearing": 4731,
      "style": 4732,
      "oxy": 4733,
      "pitch": 4734,
      "beside": 4735,
      "happiest": 4736,
      "muddy": 4737,
      "mister": 4738,
      "Chirpy": 4739,
      "turning": 4740,
      "drinks": 4741,
      "rained": 4742,
      "Remy": 4743,
      "Julie": 4744,
      "admiring": 4745,
      "aren": 4746,
      "brings": 4747,
      "strangers": 4748,
      "soared": 4749,
      "selling": 4750,
      "peanuts": 4751,
      "œThatâ": 4752,
      "Nutty": 4753,
      "peered": 4754,
      "kindly": 4755,
      "screams": 4756,
      "dinosaurs": 4757,
      "waffles": 4758,
      "Moral": 4759,
      "lung": 4760,
      "beha": 4761,
      "weight": 4762,
      "lips": 4763,
      "weren": 4764,
      "petted": 4765,
      "wanting": 4766,
      "Sadly": 4767,
      "copper": 4768,
      "revealed": 4769,
      "œIâ": 4770,
      "Uncle": 4771,
      "rhythm": 4772,
      "Sh": 4773,
      "peel": 4774,
      "anytime": 4775,
      "settle": 4776,
      "reminder": 4777,
      "simp": 4778,
      "sages": 4779,
      "orts": 4780,
      "brand": 4781,
      "growl": 4782,
      "freeze": 4783,
      "Chloe": 4784,
      "leather": 4785,
      "guessed": 4786,
      "lu": 4787,
      "osity": 4788,
      "spike": 4789,
      "perched": 4790,
      "mouths": 4791,
      "precious": 4792,
      "spill": 4793,
      "twigs": 4794,
      "six": 4795,
      "swo": 4796,
      "ona": 4797,
      "united": 4798,
      "navy": 4799,
      "shopping": 4800,
      "bringing": 4801,
      "slip": 4802,
      "scratched": 4803,
      "tomatoes": 4804,
      "prepared": 4805,
      "ric": 4806,
      "pedal": 4807,
      "spoons": 4808,
      "bones": 4809,
      "exact": 4810,
      "talent": 4811,
      "trapped": 4812,
      "challen": 4813,
      "solut": 4814,
      "sneezed": 4815,
      "Sunday": 4816,
      "subway": 4817,
      "Yum": 4818,
      "secrets": 4819,
      "circus": 4820,
      "practicing": 4821,
      "versity": 4822,
      "paints": 4823,
      "Jan": 4824,
      "ase": 4825,
      "oh": 4826,
      "rs": 4827,
      "œThank": 4828,
      "iggling": 4829,
      "gotten": 4830,
      "drag": 4831,
      "wisdom": 4832,
      "dent": 4833,
      "uses": 4834,
      "glitter": 4835,
      "nails": 4836,
      "ath": 4837,
      "university": 4838,
      "villag": 4839,
      "Really": 4840,
      "tune": 4841,
      "Sunny": 4842,
      "beds": 4843,
      "cutting": 4844,
      "catching": 4845,
      "answers": 4846,
      "apologize": 4847,
      "Big": 4848,
      "Lucky": 4849,
      "fash": 4850,
      "hurried": 4851,
      "firefight": 4852,
      "Bubbles": 4853,
      "Suzy": 4854,
      "mineral": 4855,
      "writ": 4856,
      "pillows": 4857,
      "Always": 4858,
      "everyday": 4859,
      "œWe": 4860,
      "Josh": 4861,
      "menu": 4862,
      "succeeded": 4863,
      "officer": 4864,
      "Mic": 4865,
      "crept": 4866,
      "curiosity": 4867,
      "gaz": 4868,
      "zig": 4869,
      "history": 4870,
      "bowed": 4871,
      "spaceship": 4872,
      "shadows": 4873,
      "loaded": 4874,
      "simple": 4875,
      "image": 4876,
      "benea": 4877,
      "beneath": 4878,
      "Pi": 4879,
      "Spark": 4880,
      "tour": 4881,
      "knelt": 4882,
      "disturbed": 4883,
      "Jamie": 4884,
      "mice": 4885,
      "herb": 4886,
      "weighed": 4887,
      "creation": 4888,
      "comforted": 4889,
      "pupil": 4890,
      "tch": 4891,
      "vow": 4892,
      "ends": 4893,
      "lap": 4894,
      "stripes": 4895,
      "tremble": 4896,
      "Sant": 4897,
      "visiting": 4898,
      "struggled": 4899,
      "villagers": 4900,
      "fashion": 4901,
      "Santa": 4902,
      "bare": 4903,
      "Something": 4904,
      "permit": 4905,
      "costum": 4906,
      "sadness": 4907,
      "chat": 4908,
      "items": 4909,
      "wooden": 4910,
      "rubbing": 4911,
      "begin": 4912,
      "costumes": 4913,
      "Hanna": 4914,
      "Lu": 4915,
      "brid": 4916,
      "studied": 4917,
      "grandmother": 4918,
      "rescu": 4919,
      "cuddle": 4920,
      "tickets": 4921,
      "prune": 4922,
      "wreck": 4923,
      "exactly": 4924,
      "ripped": 4925,
      "olives": 4926,
      "wink": 4927,
      "encourage": 4928,
      "joyed": 4929,
      "sterday": 4930,
      "Lul": 4931,
      "gloves": 4932,
      "mare": 4933,
      "fully": 4934,
      "overjoyed": 4935,
      "argued": 4936,
      "fascinated": 4937,
      "Itâ": 4938,
      "decides": 4939,
      "ffic": 4940,
      "brushed": 4941,
      "pinched": 4942,
      "Dav": 4943,
      "Donâ": 4944,
      "examined": 4945,
      "soaring": 4946,
      "lines": 4947,
      "neath": 4948,
      "neighbourhood": 4949,
      "snail": 4950,
      "izing": 4951,
      "nightmare": 4952,
      "zooming": 4953,
      "pancakes": 4954,
      "steel": 4955,
      "activ": 4956,
      "decorated": 4957,
      "pearl": 4958,
      "bridges": 4959,
      "wid": 4960,
      "area": 4961,
      "Afterwards": 4962,
      "situ": 4963,
      "gained": 4964,
      "slapped": 4965,
      "flavor": 4966,
      "atch": 4967,
      "whatever": 4968,
      "underground": 4969,
      "accidents": 4970,
      "rides": 4971,
      "Floppy": 4972,
      "Adam": 4973,
      "Tilly": 4974,
      "spiders": 4975,
      "lemons": 4976,
      "Fol": 4977,
      "rul": 4978,
      "vic": 4979,
      "pops": 4980,
      "stealing": 4981,
      "recognize": 4982,
      "Coco": 4983,
      "bleeding": 4984,
      "unicorn": 4985,
      "Follow": 4986,
      "Hop": 4987,
      "aded": 4988,
      "caut": 4989,
      "Lulu": 4990,
      "Out": 4991,
      "aster": 4992,
      "downstairs": 4993,
      "voices": 4994,
      "Pip": 4995,
      "travell": 4996,
      "David": 4997,
      "indy": 4998,
      "realize": 4999,
      "printed": 5000,
      "powers": 5001,
      "stretching": 5002,
      "yawn": 5003,
      "Jeff": 5004,
      "waist": 5005,
      "parked": 5006,
      "chef": 5007,
      "doctors": 5008,
      "twirling": 5009,
      "yelling": 5010,
      "recommend": 5011,
      "Claire": 5012,
      "bunnies": 5013,
      "hunt": 5014,
      "unlocked": 5015,
      "accompl": 5016,
      "wonders": 5017,
      "crum": 5018,
      "stro": 5019,
      "breaking": 5020,
      "Suz": 5021,
      "Kay": 5022,
      "mittens": 5023,
      "west": 5024,
      "stored": 5025,
      "rust": 5026,
      "neighbors": 5027,
      "acorns": 5028,
      "challenge": 5029,
      "vowed": 5030,
      "zen": 5031,
      "heel": 5032,
      "instru": 5033,
      "satisfied": 5034,
      "oxygen": 5035,
      "loving": 5036,
      "tastes": 5037,
      "eagle": 5038,
      "completed": 5039,
      "struck": 5040,
      "stamps": 5041,
      "ishes": 5042,
      "sal": 5043,
      "draws": 5044,
      "kins": 5045,
      "tugged": 5046,
      "œLook": 5047,
      "inch": 5048,
      "riage": 5049,
      "soak": 5050,
      "printer": 5051,
      "emergen": 5052,
      "zigzag": 5053,
      "ago": 5054,
      "rele": 5055,
      "eats": 5056,
      "underneath": 5057,
      "wondering": 5058,
      "winning": 5059,
      "markers": 5060,
      "introduc": 5061,
      "Hannah": 5062,
      "nicer": 5063,
      "responsible": 5064,
      "De": 5065,
      "Those": 5066,
      "pies": 5067,
      "exit": 5068,
      "bouncy": 5069,
      "motion": 5070,
      "ruin": 5071,
      "buckets": 5072,
      "prettie": 5073,
      "foods": 5074,
      "iggy": 5075,
      "stirring": 5076,
      "sights": 5077,
      "writes": 5078,
      "prettiest": 5079,
      "Bir": 5080,
      "Lizzy": 5081,
      "Pr": 5082,
      "€”": 5083,
      "Leave": 5084,
      "protected": 5085,
      "muscles": 5086,
      "jogged": 5087,
      "slim": 5088,
      "touching": 5089,
      "frozen": 5090,
      "supplies": 5091,
      "punished": 5092,
      "landscape": 5093,
      "barely": 5094,
      "Suzie": 5095,
      "Tues": 5096,
      "fer": 5097,
      "ler": 5098,
      "pupp": 5099,
      "piles": 5100,
      "bloomed": 5101,
      "Nina": 5102,
      "rance": 5103,
      "prov": 5104,
      "bottles": 5105,
      "guns": 5106,
      "mentioned": 5107,
      "properly": 5108,
      "scurried": 5109,
      "mater": 5110,
      "loose": 5111,
      "cones": 5112,
      "claps": 5113,
      "winner": 5114,
      "brushes": 5115,
      "introduce": 5116,
      "materi": 5117,
      "firemen": 5118,
      "figured": 5119,
      "sniff": 5120,
      "burrow": 5121,
      "fab": 5122,
      "tex": 5123,
      "lied": 5124,
      "shoulders": 5125,
      "planned": 5126,
      "strip": 5127,
      "applauded": 5128,
      "season": 5129,
      "urged": 5130,
      "keeps": 5131,
      "rocked": 5132,
      "gathering": 5133,
      "Susan": 5134,
      "Slow": 5135,
      "sides": 5136,
      "pockets": 5137,
      "traffic": 5138,
      "trol": 5139,
      "texture": 5140,
      "east": 5141,
      "uct": 5142,
      "grant": 5143,
      "Cindy": 5144,
      "xu": 5145,
      "œCan": 5146,
      "outdoors": 5147,
      "smar": 5148,
      "shivered": 5149,
      "increase": 5150,
      "wagging": 5151,
      "inda": 5152,
      "pouring": 5153,
      "sneaked": 5154,
      "planets": 5155,
      "instructions": 5156,
      "Wed": 5157,
      "giggling": 5158,
      "pears": 5159,
      "pebbles": 5160,
      "stole": 5161,
      "rainbows": 5162,
      "silence": 5163,
      "En": 5164,
      "Nick": 5165,
      "beard": 5166,
      "weed": 5167,
      "luxu": 5168,
      "Wednes": 5169,
      "lam": 5170,
      "budge": 5171,
      "machines": 5172,
      "emergency": 5173,
      "letâ": 5174,
      "purred": 5175,
      "confident": 5176,
      "ruler": 5177,
      "ga": 5178,
      "included": 5179,
      "honk": 5180,
      "Abby": 5181,
      "eight": 5182,
      "tonight": 5183,
      "youth": 5184,
      "hoo": 5185,
      "roaring": 5186,
      "dragons": 5187,
      "Get": 5188,
      "Linda": 5189,
      "nets": 5190,
      "roo": 5191,
      "ica": 5192,
      "opin": 5193,
      "master": 5194,
      "control": 5195,
      "prints": 5196,
      "frosting": 5197,
      "released": 5198,
      "release": 5199,
      "rac": 5200,
      "surface": 5201,
      "steep": 5202,
      "storekeeper": 5203,
      "horns": 5204,
      "wedding": 5205,
      "introduced": 5206,
      "fabric": 5207,
      ".'": 5208,
      "Watch": 5209,
      "entire": 5210,
      "matched": 5211,
      "guest": 5212,
      "victory": 5213,
      "ni": 5214,
      "vies": 5215,
      "shelves": 5216,
      "ppers": 5217,
      "guys": 5218,
      "marriage": 5219,
      "strings": 5220,
      "Buzzy": 5221,
      "tickle": 5222,
      "sorting": 5223,
      "choo": 5224,
      "shivering": 5225,
      "babies": 5226,
      "Day": 5227,
      "Put": 5228,
      "œThis": 5229,
      "rees": 5230,
      "soaked": 5231,
      "boom": 5232,
      "ledge": 5233,
      "shock": 5234,
      "sisters": 5235,
      "flap": 5236,
      "Betty": 5237,
      "twinkling": 5238,
      "ourselves": 5239,
      "ik": 5240,
      "movies": 5241,
      "Johnson": 5242,
      "screaming": 5243,
      "paintings": 5244,
      "Fri": 5245,
      "Lou": 5246,
      "die": 5247,
      "youn": 5248,
      "chewing": 5249,
      "crackers": 5250,
      "Tuesday": 5251,
      "uctantly": 5252,
      "rr": 5253,
      "hest": 5254,
      "acted": 5255,
      "Jacky": 5256,
      "colored": 5257,
      "teasing": 5258,
      "Slowly": 5259,
      "goodnight": 5260,
      "policeman": 5261,
      "balancing": 5262,
      "dragged": 5263,
      "chases": 5264,
      "jects": 5265,
      "deser": 5266,
      "spraying": 5267,
      "discovering": 5268,
      "cautious": 5269,
      "plent": 5270,
      "pect": 5271,
      "mixing": 5272,
      "cheering": 5273,
      "plenty": 5274,
      "ads": 5275,
      "contest": 5276,
      "nexpected": 5277,
      "network": 5278,
      "Carl": 5279,
      "solution": 5280,
      "bunch": 5281,
      "cough": 5282,
      "poking": 5283,
      "sire": 5284,
      "unexpected": 5285,
      "omas": 5286,
      "knowledge": 5287,
      "bert": 5288,
      "rocking": 5289,
      "result": 5290,
      "competition": 5291,
      "pastels": 5292,
      "demanded": 5293,
      "swoop": 5294,
      "siren": 5295,
      "lee": 5296,
      "expect": 5297,
      "sorted": 5298,
      "Thomas": 5299,
      "matching": 5300,
      "drives": 5301,
      "Both": 5302,
      "dusty": 5303,
      "Wednesday": 5304,
      "Aunt": 5305,
      "Jones": 5306,
      "Rab": 5307,
      "pout": 5308,
      "sway": 5309,
      "ira": 5310,
      "nect": 5311,
      "sweeties": 5312,
      "achieve": 5313,
      "situation": 5314,
      "Che": 5315,
      "ults": 5316,
      "cot": 5317,
      "homework": 5318,
      "strike": 5319,
      "Jessie": 5320,
      "becoming": 5321,
      "expected": 5322,
      "odd": 5323,
      "Momo": 5324,
      "blink": 5325,
      "disagree": 5326,
      "Jenna": 5327,
      "written": 5328,
      "fetch": 5329,
      "hugging": 5330,
      "truly": 5331,
      "baked": 5332,
      "reluctantly": 5333,
      "coloured": 5334,
      "sausages": 5335,
      "direction": 5336,
      "effort": 5337,
      "crumbs": 5338,
      "Kayla": 5339,
      "slimy": 5340,
      "luxury": 5341,
      "peaches": 5342,
      "bravery": 5343,
      "singer": 5344,
      "creating": 5345,
      "passing": 5346,
      "strum": 5347,
      "scales": 5348,
      "Luke": 5349,
      "healed": 5350,
      "Milo": 5351,
      "polishing": 5352,
      "œDonâ": 5353,
      "cost": 5354,
      "cans": 5355,
      "blooming": 5356,
      "broom": 5357,
      "dies": 5358,
      "œHello": 5359,
      "rip": 5360,
      "rolls": 5361,
      "izzie": 5362,
      "chips": 5363,
      "Lizzie": 5364,
      "tum": 5365,
      "irm": 5366,
      "goals": 5367,
      "theirs": 5368,
      "owners": 5369,
      "recorded": 5370,
      "Quick": 5371,
      "Two": 5372,
      "seag": 5373,
      "rious": 5374,
      "Time": 5375,
      "cuts": 5376,
      "arrive": 5377,
      "pastries": 5378,
      "towels": 5379,
      "dolphins": 5380,
      "List": 5381,
      "wound": 5382,
      "canâ": 5383,
      "sweets": 5384,
      "curtains": 5385,
      "Listen": 5386,
      "exha": 5387,
      "staring": 5388,
      "countryside": 5389,
      "muffins": 5390,
      "seagull": 5391,
      "ah": 5392,
      "sports": 5393,
      "curly": 5394,
      "vanish": 5395,
      "completely": 5396,
      "ribbons": 5397,
      "trembling": 5398,
      "sighs": 5399,
      "waiter": 5400,
      "trips": 5401,
      "partic": 5402,
      "studying": 5403,
      "include": 5404,
      "exhaust": 5405,
      "Our": 5406,
      "stare": 5407,
      "Being": 5408,
      "threat": 5409,
      "relief": 5410,
      "kicking": 5411,
      "suitcase": 5412,
      "wandering": 5413,
      "camping": 5414,
      "applaud": 5415,
      "prunes": 5416,
      "Keep": 5417,
      "dentist": 5418,
      "Bad": 5419,
      "Matt": 5420,
      "ud": 5421,
      "vin": 5422,
      "highest": 5423,
      "jamas": 5424,
      "...": 5425,
      "kneeled": 5426,
      "ib": 5427,
      "œOh": 5428,
      "worries": 5429,
      "caused": 5430,
      "bbed": 5431,
      "valued": 5432,
      "desert": 5433,
      "prayer": 5434,
      "Julia": 5435,
      "librarian": 5436,
      "awesome": 5437,
      "Yea": 5438,
      "immer": 5439,
      "cky": 5440,
      "shined": 5441,
      "ventured": 5442,
      "snakes": 5443,
      "zookeeper": 5444,
      "regretted": 5445,
      "Quack": 5446,
      "gazed": 5447,
      "Pipp": 5448,
      "Ja": 5449,
      "Jay": 5450,
      "ien": 5451,
      "scra": 5452,
      "herbs": 5453,
      "ranger": 5454,
      "catches": 5455,
      "dresser": 5456,
      "delivery": 5457,
      "exhausted": 5458,
      "Fe": 5459,
      "struggle": 5460,
      "roads": 5461,
      "repeated": 5462,
      "arguing": 5463,
      "irts": 5464,
      "ripe": 5465,
      "rockets": 5466,
      "ladybug": 5467,
      "traveled": 5468,
      "Rabbit": 5469,
      "particular": 5470,
      "Tara": 5471,
      "pite": 5472,
      "entrance": 5473,
      "importance": 5474,
      "marks": 5475,
      "marker": 5476,
      "seems": 5477,
      "lamb": 5478,
      "Yeah": 5479,
      "firm": 5480,
      "len": 5481,
      "agrees": 5482,
      "Emmy": 5483,
      "laying": 5484,
      "ezing": 5485,
      "dared": 5486,
      "Ame": 5487,
      "Dolly": 5488,
      "cash": 5489,
      "safer": 5490,
      "lower": 5491,
      "icky": 5492,
      "fault": 5493,
      "aky": 5494,
      "rescued": 5495,
      "Bird": 5496,
      "Larry": 5497,
      "rist": 5498,
      "ena": 5499,
      "thro": 5500,
      "seesaw": 5501,
      "tails": 5502,
      "reaching": 5503,
      "Christ": 5504,
      "leader": 5505,
      "peeking": 5506,
      "slap": 5507,
      "Jazz": 5508,
      "wow": 5509,
      "pots": 5510,
      "pajamas": 5511,
      "faraway": 5512,
      "char": 5513,
      "pencils": 5514,
      "reveal": 5515,
      "wiggled": 5516,
      "Excuse": 5517,
      "Enjoy": 5518,
      "throat": 5519,
      "lined": 5520,
      "removed": 5521,
      "sticking": 5522,
      "Jessica": 5523,
      "œWhy": 5524,
      "igi": 5525,
      "youâ": 5526,
      "wasnâ": 5527,
      "Mira": 5528,
      "learns": 5529,
      "patience": 5530,
      "squealed": 5531,
      "Maya": 5532,
      "Bon": 5533,
      "Sur": 5534,
      "freed": 5535,
      "ene": 5536,
      "single": 5537,
      "farther": 5538,
      "growling": 5539,
      "adding": 5540,
      "fuzzy": 5541,
      "groceries": 5542,
      "quacked": 5543,
      "Jacob": 5544,
      "iding": 5545,
      "however": 5546,
      "rubs": 5547,
      "flat": 5548,
      "pretends": 5549,
      "startled": 5550,
      "itchy": 5551,
      "crabs": 5552,
      "sneaky": 5553,
      "families": 5554,
      "activities": 5555,
      "Christmas": 5556,
      "Sn": 5557,
      "observed": 5558,
      "Nothing": 5559,
      "bars": 5560,
      "patted": 5561,
      "polished": 5562,
      "inviting": 5563,
      "knights": 5564,
      "roots": 5565,
      "Ral": 5566,
      "ky": 5567,
      "replaced": 5568,
      "sandcastles": 5569,
      "wires": 5570,
      "Uh": 5571,
      "faced": 5572,
      "marked": 5573,
      "covers": 5574,
      "warn": 5575,
      "penguins": 5576,
      "Prin": 5577,
      "Ba": 5578,
      "bend": 5579,
      "bumpy": 5580,
      "angled": 5581,
      "flames": 5582,
      "organizing": 5583,
      "nectar": 5584,
      "Amelia": 5585,
      "Gigi": 5586,
      "sen": 5587,
      "œMommy": 5588,
      "liqu": 5589,
      "Days": 5590,
      "liquid": 5591,
      "Li": 5592,
      "chuck": 5593,
      "rusty": 5594,
      "misses": 5595,
      "miles": 5596,
      "radishes": 5597,
      "Robbie": 5598,
      "weeping": 5599,
      "baker": 5600,
      "Ralph": 5601,
      "restored": 5602,
      "stolen": 5603,
      "resting": 5604,
      "swooped": 5605,
      "Pinky": 5606,
      "Run": 5607,
      "Water": 5608,
      "ker": 5609,
      "everybody": 5610,
      "magnets": 5611,
      "darkness": 5612,
      "princesses": 5613,
      "June": 5614,
      "Boo": 5615,
      "fted": 5616,
      "beads": 5617,
      "somebody": 5618,
      "Everybody": 5619,
      "rings": 5620,
      "interested": 5621,
      "paddled": 5622,
      "Many": 5623,
      "Pam": 5624,
      "Take": 5625,
      "awake": 5626,
      "ranny": 5627,
      "worker": 5628,
      "opening": 5629,
      "insist": 5630,
      "packing": 5631,
      "flags": 5632,
      "tickled": 5633,
      "twinkle": 5634,
      "paddle": 5635,
      "balanced": 5636,
      "provided": 5637,
      "cautiously": 5638,
      "Ear": 5639,
      "Mat": 5640,
      "haw": 5641,
      "belly": 5642,
      "sew": 5643,
      "crowd": 5644,
      "opinion": 5645,
      "Mon": 5646,
      "gar": 5647,
      "iar": 5648,
      "wasted": 5649,
      "mane": 5650,
      "usually": 5651,
      "twis": 5652,
      "familiar": 5653,
      "gaze": 5654,
      "cent": 5655,
      "wallow": 5656,
      "objects": 5657,
      "workers": 5658,
      "filling": 5659,
      "dipped": 5660,
      "actions": 5661,
      "melting": 5662,
      "lollipops": 5663,
      "Bess": 5664,
      "cure": 5665,
      "swallow": 5666,
      "allo": 5667,
      "smiley": 5668,
      "naps": 5669,
      "logs": 5670,
      "Am": 5671,
      "Mel": 5672,
      "staying": 5673,
      "project": 5674,
      "celebration": 5675,
      "beginning": 5676,
      "toss": 5677,
      "tallest": 5678,
      "cracked": 5679,
      "winked": 5680,
      "teaches": 5681,
      "œWhatâ": 5682,
      "cashier": 5683,
      "Farm": 5684,
      "Wo": 5685,
      "robb": 5686,
      "shaped": 5687,
      "stern": 5688,
      "swims": 5689,
      "buying": 5690,
      "leaning": 5691,
      "recording": 5692,
      "Sophia": 5693,
      "talented": 5694,
      "firefighters": 5695,
      "timer": 5696,
      "raind": 5697,
      "explorers": 5698,
      "accomplish": 5699,
      "raindro": 5700,
      "Abbie": 5701,
      "Fu": 5702,
      "Fine": 5703,
      "glee": 5704,
      "pause": 5705,
      "cub": 5706,
      "splashes": 5707,
      "Squ": 5708,
      "swirl": 5709,
      "yesterday": 5710,
      "silent": 5711,
      "rumble": 5712,
      "Karen": 5713,
      "Sque": 5714,
      "opp": 5715,
      "todd": 5716,
      "seven": 5717,
      "hissed": 5718,
      "speaking": 5719,
      "tractor": 5720,
      "fairies": 5721,
      "improved": 5722,
      "bakery": 5723,
      "Earth": 5724,
      "tasks": 5725,
      "ory": 5726,
      "wears": 5727,
      "folding": 5728,
      "celebrating": 5729,
      "Sparky": 5730,
      "Gina": 5731,
      "bedtime": 5732,
      "snuck": 5733,
      "protecting": 5734,
      "recommended": 5735,
      "directions": 5736,
      "Mi": 5737,
      "Oli": 5738,
      "iles": 5739,
      "forehead": 5740,
      "Ah": 5741,
      "ks": 5742,
      "secure": 5743,
      "sailboat": 5744,
      "Stay": 5745,
      "tricky": 5746,
      "Princess": 5747,
      "raindrops": 5748,
      "fits": 5749,
      "ware": 5750,
      "ongest": 5751,
      "ths": 5752,
      "hog": 5753,
      "reply": 5754,
      "snat": 5755,
      "tricked": 5756,
      "yells": 5757,
      "Flops": 5758,
      "Farmer": 5759,
      "Hoo": 5760,
      "Jon": 5761,
      "pered": 5762,
      "froze": 5763,
      "copy": 5764,
      "leading": 5765,
      "beyond": 5766,
      "Any": 5767,
      "isies": 5768,
      "stain": 5769,
      "sobbed": 5770,
      "backed": 5771,
      "squish": 5772,
      "signed": 5773,
      "mination": 5774,
      "daisies": 5775,
      "Without": 5776,
      "attack": 5777,
      "determination": 5778,
      "younger": 5779,
      "chuckled": 5780,
      "Ash": 5781,
      "Todd": 5782,
      "piggy": 5783,
      "€˜": 5784,
      "shirts": 5785,
      "deal": 5786,
      "flake": 5787,
      "pedals": 5788,
      "knees": 5789,
      "diving": 5790,
      "photos": 5791,
      "affes": 5792,
      "poems": 5793,
      "Honey": 5794,
      "refle": 5795,
      "closes": 5796,
      "health": 5797,
      "scrubbed": 5798,
      "parties": 5799,
      "Robby": 5800,
      "Olive": 5801,
      "mies": 5802,
      "chop": 5803,
      "dots": 5804,
      "reads": 5805,
      "stays": 5806,
      "slam": 5807,
      "listens": 5808,
      "twin": 5809,
      "wipes": 5810,
      "jackets": 5811,
      "Robert": 5812,
      "giraffes": 5813,
      "behavi": 5814,
      "iki": 5815,
      "pouted": 5816,
      "astr": 5817,
      "ana": 5818,
      "wadd": 5819,
      "itches": 5820,
      "unpacked": 5821,
      "fever": 5822,
      "hops": 5823,
      "stem": 5824,
      "insects": 5825,
      "ners": 5826,
      "sled": 5827,
      "steer": 5828,
      "Meow": 5829,
      "gems": 5830,
      "temper": 5831,
      "bumps": 5832,
      "delivered": 5833,
      "Zoey": 5834,
      "cheeks": 5835,
      "Excited": 5836,
      "smarter": 5837,
      "itor": 5838,
      "yourselves": 5839,
      "pleasure": 5840,
      "guy": 5841,
      "mixture": 5842,
      "drifted": 5843,
      "knocks": 5844,
      "paying": 5845,
      "Whee": 5846,
      "discussed": 5847,
      "minerals": 5848,
      "fluttered": 5849,
      "behaved": 5850,
      "onaut": 5851,
      "astronaut": 5852,
      "sense": 5853,
      "ido": 5854,
      "ora": 5855,
      "orted": 5856,
      "scaring": 5857,
      "scarves": 5858,
      "anger": 5859,
      "spice": 5860,
      "ortun": 5861,
      "coloring": 5862,
      "rivers": 5863,
      "calmed": 5864,
      "Flopsy": 5865,
      "Fido": 5866,
      "hitting": 5867,
      "rever": 5868,
      "impossible": 5869,
      "roses": 5870,
      "horiz": 5871,
      "bowls": 5872,
      "wouldnâ": 5873,
      "mesmer": 5874,
      "hedgehog": 5875,
      "screws": 5876,
      "travelled": 5877,
      "œLet": 5878,
      "sequ": 5879,
      "treehouse": 5880,
      "handful": 5881,
      "bows": 5882,
      "arrows": 5883,
      "hallway": 5884,
      "materials": 5885,
      "horizon": 5886,
      "Binky": 5887,
      "Fox": 5888,
      "Mad": 5889,
      "remo": 5890,
      "?\",": 5891,
      "raincoat": 5892,
      "afterwards": 5893,
      "ences": 5894,
      "uggles": 5895,
      "click": 5896,
      "hesitated": 5897,
      "stomped": 5898,
      "remote": 5899,
      "Pandy": 5900,
      "cous": 5901,
      "joking": 5902,
      "badge": 5903,
      "Doggy": 5904,
      "slices": 5905,
      "achieved": 5906,
      "Surpr": 5907,
      "Rover": 5908,
      "tangled": 5909,
      "players": 5910,
      "peck": 5911,
      "mance": 5912,
      "kites": 5913,
      "darker": 5914,
      "snowballs": 5915,
      "cupcakes": 5916,
      "sweat": 5917,
      "swept": 5918,
      "Roar": 5919,
      "fluttering": 5920,
      "performance": 5921,
      "Pre": 5922,
      "Zip": 5923,
      "instrum": 5924,
      "forts": 5925,
      "creamy": 5926,
      "Finn": 5927,
      "dreamt": 5928,
      "kicks": 5929,
      "blows": 5930,
      "snatched": 5931,
      "temperature": 5932,
      "--": 5933,
      "ping": 5934,
      "ility": 5935,
      "windy": 5936,
      "dancers": 5937,
      "Very": 5938,
      "toed": 5939,
      "needles": 5940,
      "lighter": 5941,
      "drums": 5942,
      "videos": 5943,
      "stroked": 5944,
      "?'": 5945,
      "yum": 5946,
      "losing": 5947,
      "consequ": 5948,
      "flapping": 5949,
      "Bluey": 5950,
      "echo": 5951,
      "ref": 5952,
      "candies": 5953,
      "Davey": 5954,
      "squares": 5955,
      "salty": 5956,
      "Friends": 5957,
      "Cra": 5958,
      "masks": 5959,
      "tty": 5960,
      "third": 5961,
      "ford": 5962,
      "tered": 5963,
      "dollhouse": 5964,
      "hider": 5965,
      "suits": 5966,
      "wrapping": 5967,
      "pans": 5968,
      "separated": 5969,
      "Cu": 5970,
      "anno": 5971,
      "mets": 5972,
      "helmets": 5973,
      "potion": 5974,
      "lett": 5975,
      "grassy": 5976,
      "panick": 5977,
      "tigers": 5978,
      "Dani": 5979,
      "rewarded": 5980,
      "annoy": 5981,
      "Sim": 5982,
      "Since": 5983,
      "Tess": 5984,
      "dip": 5985,
      "eted": 5986,
      "sie": 5987,
      "inst": 5988,
      "oni": 5989,
      "iled": 5990,
      "noses": 5991,
      "Nobody": 5992,
      "hearing": 5993,
      "artist": 5994,
      "audi": 5995,
      "tunnels": 5996,
      "indeed": 5997,
      "including": 5998,
      "ornaments": 5999,
      "requested": 6000,
      "hawk": 6001,
      "consequences": 6002,
      "repa": 6003,
      "itted": 6004,
      "outfit": 6005,
      "backwards": 6006,
      "visitor": 6007,
      "wraps": 6008,
      "shrinking": 6009,
      "choices": 6010,
      "burst": 6011,
      "darling": 6012,
      "audience": 6013,
      "repaired": 6014,
      "œWow": 6015,
      "intri": 6016,
      "onions": 6017,
      "beloved": 6018,
      "rule": 6019,
      "snowmen": 6020,
      "Bee": 6021,
      "ments": 6022,
      "seeker": 6023,
      "blocking": 6024,
      "Stella": 6025,
      "Although": 6026,
      "neighbours": 6027,
      "complaining": 6028,
      "rising": 6029,
      "pon": 6030,
      "œDo": 6031,
      "thorn": 6032,
      "atur": 6033,
      "gobbled": 6034,
      "meals": 6035,
      "drawn": 6036,
      "plans": 6037,
      "peacefully": 6038,
      "avoid": 6039,
      "cubes": 6040,
      "complained": 6041,
      "widened": 6042,
      "immering": 6043,
      "Woof": 6044,
      "Along": 6045,
      "Unt": 6046,
      "center": 6047,
      "resis": 6048,
      "arran": 6049,
      "sale": 6050,
      "igning": 6051,
      "scratches": 6052,
      "basement": 6053,
      "Sadie": 6054,
      "Squirrel": 6055,
      "toddler": 6056,
      "Until": 6057,
      "itched": 6058,
      "urry": 6059,
      "helpers": 6060,
      "blings": 6061,
      "wrist": 6062,
      "gracefully": 6063,
      "Mabel": 6064,
      "Great": 6065,
      "Boun": 6066,
      "Lena": 6067,
      "yan": 6068,
      "forgiven": 6069,
      "willing": 6070,
      "snowflake": 6071,
      "weekend": 6072,
      "siblings": 6073,
      "puppet": 6074,
      "During": 6075,
      "Tuna": 6076,
      "Zero": 6077,
      "crew": 6078,
      "gued": 6079,
      "pointy": 6080,
      "Judy": 6081,
      "lettuce": 6082,
      "hour": 6083,
      "webs": 6084,
      "ruining": 6085,
      "acting": 6086,
      "teased": 6087,
      "greeted": 6088,
      "afford": 6089,
      "action": 6090,
      "source": 6091,
      "limes": 6092,
      "ivity": 6093,
      "lungs": 6094,
      "Spl": 6095,
      "dents": 6096,
      "fears": 6097,
      "racco": 6098,
      "ters": 6099,
      "handsome": 6100,
      "concer": 6101,
      "sation": 6102,
      "spreading": 6103,
      "Owl": 6104,
      "batteries": 6105,
      "Ew": 6106,
      "Yummy": 6107,
      "scor": 6108,
      "wins": 6109,
      "ount": 6110,
      "neither": 6111,
      "ados": 6112,
      "forgetting": 6113,
      "starfish": 6114,
      "spins": 6115,
      "wonâ": 6116,
      "conds": 6117,
      "merry": 6118,
      "clowns": 6119,
      "forks": 6120,
      "avocados": 6121,
      "sprinkled": 6122,
      "Lia": 6123,
      "Mart": 6124,
      "Spe": 6125,
      "Vroom": 6126,
      "reass": 6127,
      "ropes": 6128,
      "Only": 6129,
      "heading": 6130,
      "grabbing": 6131,
      "printing": 6132,
      "enthusi": 6133,
      "Frog": 6134,
      "Shh": 6135,
      "deserve": 6136,
      "Back": 6137,
      "Mouse": 6138,
      "Sof": 6139,
      "rup": 6140,
      "stung": 6141,
      "seconds": 6142,
      "among": 6143,
      "asm": 6144,
      "creations": 6145,
      "conne": 6146,
      "tram": 6147,
      "borrowed": 6148,
      "neatly": 6149,
      "zipping": 6150,
      "surroundings": 6151,
      "Mickey": 6152,
      "chefs": 6153,
      "resisted": 6154,
      "enthusiasm": 6155,
      "Fire": 6156,
      "Jax": 6157,
      "Lau": 6158,
      "Try": 6159,
      "hus": 6160,
      "œCome": 6161,
      "œHi": 6162,
      "adult": 6163,
      "peppers": 6164,
      "skunk": 6165,
      "couple": 6166,
      "creativity": 6167,
      "imagining": 6168,
      "mushrooms": 6169,
      "growls": 6170,
      "granted": 6171,
      "trampol": 6172,
      "Wil": 6173,
      "dama": 6174,
      "ude": 6175,
      "amed": 6176,
      "antic": 6177,
      "twice": 6178,
      "decorating": 6179,
      "praying": 6180,
      "triangles": 6181,
      "buzzed": 6182,
      "tiptoed": 6183,
      "Bessie": 6184,
      "accomplishment": 6185,
      "Mikey": 6186,
      "raccoon": 6187,
      "trampoline": 6188,
      "damage": 6189,
      "Kiki": 6190,
      "Und": 6191,
      "gross": 6192,
      "mallow": 6193,
      "stool": 6194,
      "tou": 6195,
      "nood": 6196,
      "shmallow": 6197,
      "throughout": 6198,
      "promises": 6199,
      "napkins": 6200,
      "wishing": 6201,
      "cuddly": 6202,
      "superheroes": 6203,
      "hesitant": 6204,
      "Mine": 6205,
      "nine": 6206,
      "itude": 6207,
      "forgets": 6208,
      "bodies": 6209,
      "Momma": 6210,
      "prett": 6211,
      "bage": 6212,
      "planning": 6213,
      "spoonful": 6214,
      "warnings": 6215,
      "Mina": 6216,
      "Spr": 6217,
      "nif": 6218,
      "toaster": 6219,
      "item": 6220,
      "Thatâ": 6221,
      "dollars": 6222,
      "snuggle": 6223,
      "heavier": 6224,
      "rotted": 6225,
      "vanilla": 6226,
      "tempt": 6227,
      "prettier": 6228,
      "Ali": 6229,
      "pad": 6230,
      "hael": 6231,
      "ids": 6232,
      "joyful": 6233,
      "thrown": 6234,
      "Beep": 6235,
      "baths": 6236,
      "recipe": 6237,
      "breathed": 6238,
      "firefighter": 6239,
      "Michael": 6240,
      "bi": 6241,
      "ply": 6242,
      "wept": 6243,
      "lies": 6244,
      "worn": 6245,
      "wobb": 6246,
      "sunflowers": 6247,
      "Too": 6248,
      "certain": 6249,
      "matters": 6250,
      "bully": 6251,
      "delivering": 6252,
      "husband": 6253,
      "behaving": 6254,
      "rior": 6255,
      "ades": 6256,
      "feast": 6257,
      "abby": 6258,
      "pose": 6259,
      "ops": 6260,
      "wobbled": 6261,
      "Joan": 6262,
      "hides": 6263,
      "healing": 6264,
      "scam": 6265,
      "students": 6266,
      "warrior": 6267,
      "œYouâ": 6268,
      "performing": 6269,
      "Daniel": 6270,
      "Martha": 6271,
      "bits": 6272,
      "mate": 6273,
      "ouch": 6274,
      "pecked": 6275,
      "dropping": 6276,
      "slower": 6277,
      "dances": 6278,
      "seaweed": 6279,
      "increased": 6280,
      "waddled": 6281,
      "spices": 6282,
      "cousin": 6283,
      "Pretty": 6284,
      "Kelly": 6285,
      "Madd": 6286,
      "Que": 6287,
      "onge": 6288,
      "sever": 6289,
      "plucked": 6290,
      "dod": 6291,
      "sponge": 6292,
      "conver": 6293,
      "emma": 6294,
      "serving": 6295,
      "squeak": 6296,
      "Patty": 6297,
      "wiggle": 6298,
      "squishy": 6299,
      "Maddy": 6300,
      "Under": 6301,
      "Maddie": 6302,
      "10": 6303,
      "Wally": 6304,
      "aven": 6305,
      "cused": 6306,
      "express": 6307,
      "ongrat": 6308,
      "Ange": 6309,
      "confli": 6310,
      "designed": 6311,
      "sailors": 6312,
      "guests": 6313,
      "Curious": 6314,
      "Laura": 6315,
      "Granny": 6316,
      "Rain": 6317,
      "blast": 6318,
      "allest": 6319,
      "thud": 6320,
      "smallest": 6321,
      "least": 6322,
      "drawers": 6323,
      "glued": 6324,
      "talks": 6325,
      "streets": 6326,
      "grandparents": 6327,
      "loading": 6328,
      "appreciation": 6329,
      "rushing": 6330,
      "Green": 6331,
      "scraped": 6332,
      "slammed": 6333,
      "touches": 6334,
      "Queen": 6335,
      "ongratul": 6336,
      "Bri": 6337,
      "reason": 6338,
      "presses": 6339,
      "remembering": 6340,
      "mints": 6341,
      "raging": 6342,
      "ease": 6343,
      "symbols": 6344,
      "honked": 6345,
      "intrigued": 6346,
      "Splash": 6347,
      "Nice": 6348,
      "oky": 6349,
      "iley": 6350,
      "stroke": 6351,
      "swallowed": 6352,
      "Sofia": 6353,
      "refresh": 6354,
      "encou": 6355,
      "alien": 6356,
      "seas": 6357,
      "magician": 6358,
      "wrink": 6359,
      "shops": 6360,
      "paths": 6361,
      "necklaces": 6362,
      "Stan": 6363,
      "pumpkins": 6364,
      "cushions": 6365,
      "yielded": 6366,
      "Birthday": 6367,
      "puppies": 6368,
      "Louise": 6369,
      "Snuggles": 6370,
      "Squeaky": 6371,
      "Hold": 6372,
      "Oops": 6373,
      "cas": 6374,
      "sank": 6375,
      "œMy": 6376,
      "ann": 6377,
      "anny": 6378,
      "iment": 6379,
      "neare": 6380,
      "unsure": 6381,
      "dads": 6382,
      "rains": 6383,
      "Love": 6384,
      "Janey": 6385,
      "hopeful": 6386,
      "corners": 6387,
      "postman": 6388,
      "respond": 6389,
      "Birdy": 6390,
      "Bongo": 6391,
      "Ye": 6392,
      "kittens": 6393,
      "asing": 6394,
      "causing": 6395,
      "Dog": 6396,
      "chosen": 6397,
      "curiously": 6398,
      "marshmallow": 6399,
      "passeng": 6400,
      "respected": 6401,
      "feeding": 6402,
      "lifting": 6403,
      "softer": 6404,
      "spikes": 6405,
      "scampered": 6406,
      "passengers": 6407,
      "Ava": 6408,
      "Min": 6409,
      "Moo": 6410,
      "rout": 6411,
      "sou": 6412,
      "swords": 6413,
      "ition": 6414,
      "formed": 6415,
      "geese": 6416,
      "moo": 6417,
      "puff": 6418,
      "charac": 6419,
      "joining": 6420,
      "Elly": 6421,
      "nervously": 6422,
      "swans": 6423,
      "trembled": 6424,
      "rustling": 6425,
      "reflection": 6426,
      "Ryan": 6427,
      "earn": 6428,
      "munch": 6429,
      "via": 6430,
      "inger": 6431,
      "focused": 6432,
      "napping": 6433,
      "woof": 6434,
      "chopped": 6435,
      "warmer": 6436,
      "coral": 6437,
      "smelling": 6438,
      "changing": 6439,
      "Ashley": 6440,
      "refreshing": 6441,
      "Holly": 6442,
      "flight": 6443,
      "lings": 6444,
      "pens": 6445,
      "onward": 6446,
      "playroom": 6447,
      "whispers": 6448,
      "steady": 6449,
      "tested": 6450,
      "ignoring": 6451,
      "wiping": 6452,
      "stacked": 6453,
      "fishes": 6454,
      "surrendered": 6455,
      "daring": 6456,
      "wider": 6457,
      "twisty": 6458,
      "Brian": 6459,
      "Yesterday": 6460,
      "Dr": 6461,
      "ais": 6462,
      "ev": 6463,
      "sending": 6464,
      "œNow": 6465,
      "œWell": 6466,
      "roars": 6467,
      "gardener": 6468,
      "explorer": 6469,
      "sneezing": 6470,
      "suggestion": 6471,
      "occas": 6472,
      "campfire": 6473,
      "oatmeal": 6474,
      "screwdriver": 6475,
      "robber": 6476,
      "noodles": 6477,
      "Bang": 6478,
      "Ginger": 6479,
      "uzz": 6480,
      "edges": 6481,
      "rect": 6482,
      "ists": 6483,
      "stroll": 6484,
      "amount": 6485,
      "bras": 6486,
      "flown": 6487,
      "finite": 6488,
      "tables": 6489,
      "Helen": 6490,
      "sails": 6491,
      "heroes": 6492,
      "Star": 6493,
      "Still": 6494,
      "belts": 6495,
      "Frankie": 6496,
      "firmly": 6497,
      "freedom": 6498,
      "mesmerized": 6499,
      "Tig": 6500,
      "pours": 6501,
      "scient": 6502,
      "manag": 6503,
      "grum": 6504,
      "spat": 6505,
      "prove": 6506,
      "lessons": 6507,
      "genie": 6508,
      "Mean": 6509,
      "Chris": 6510,
      "humans": 6511,
      "crashing": 6512,
      "flavors": 6513,
      "Baa": 6514,
      "scored": 6515,
      "encouraging": 6516,
      "Bru": 6517,
      "tuck": 6518,
      "ppies": 6519,
      "ading": 6520,
      "cosy": 6521,
      "defe": 6522,
      "zebras": 6523,
      "frowning": 6524,
      "rays": 6525,
      "performed": 6526,
      "wobbly": 6527,
      "Des": 6528,
      "aimed": 6529,
      "acles": 6530,
      "final": 6531,
      "rainy": 6532,
      "nearly": 6533,
      "months": 6534,
      "strongest": 6535,
      "ounced": 6536,
      "finishing": 6537,
      "oysters": 6538,
      "echoed": 6539,
      "panicked": 6540,
      "finitely": 6541,
      "ya": 6542,
      "height": 6543,
      "essa": 6544,
      "notes": 6545,
      "Paula": 6546,
      "Carol": 6547,
      "surfboard": 6548,
      "Froggy": 6549,
      "travelling": 6550,
      "ponies": 6551,
      "marshmallows": 6552,
      "evil": 6553,
      "Win": 6554,
      "definitely": 6555,
      "poster": 6556,
      "tying": 6557,
      "waterfall": 6558,
      "leapt": 6559,
      "colla": 6560,
      "bells": 6561,
      "pays": 6562,
      "politely": 6563,
      "examining": 6564,
      "streamers": 6565,
      "twinkled": 6566,
      "punishment": 6567,
      "Frosty": 6568,
      "sniffs": 6569,
      "Wend": 6570,
      "hil": 6571,
      "wri": 6572,
      "shown": 6573,
      "elf": 6574,
      "poppies": 6575,
      "races": 6576,
      "puzzled": 6577,
      "Roger": 6578,
      "spells": 6579,
      "Fuzzy": 6580,
      "Wendy": 6581,
      "faded": 6582,
      "lending": 6583,
      "onse": 6584,
      "sadd": 6585,
      "cope": 6586,
      "bravest": 6587,
      "worrying": 6588,
      "baskets": 6589,
      "drivers": 6590,
      "dived": 6591,
      "slips": 6592,
      "lifts": 6593,
      "response": 6594,
      "suffered": 6595,
      "connected": 6596,
      "Meanwhile": 6597,
      "Despite": 6598,
      "Mother": 6599,
      "Never": 6600,
      "Tessa": 6601,
      "aside": 6602,
      "maker": 6603,
      "counts": 6604,
      "stands": 6605,
      "firefly": 6606,
      "colder": 6607,
      "seashells": 6608,
      "polar": 6609,
      "crossing": 6610,
      "leads": 6611,
      "fantastic": 6612,
      "burying": 6613,
      "preparing": 6614,
      "licking": 6615,
      "Gabby": 6616,
      "Zara": 6617,
      "pant": 6618,
      "assm": 6619,
      "gears": 6620,
      "newfound": 6621,
      "Annabel": 6622,
      "tage": 6623,
      "overcome": 6624,
      "braver": 6625,
      "surfing": 6626,
      "cloudy": 6627,
      "Meg": 6628,
      "obeyed": 6629,
      "Feel": 6630,
      "charge": 6631,
      "Surprise": 6632,
      "Maisy": 6633,
      "Playing": 6634,
      "Up": 6635,
      "pound": 6636,
      "ilder": 6637,
      "adults": 6638,
      "coach": 6639,
      "watering": 6640,
      "gonna": 6641,
      "rotten": 6642,
      "shady": 6643,
      "efforts": 6644,
      "Pippin": 6645,
      "tossed": 6646,
      "behavior": 6647,
      "Simon": 6648,
      "conflict": 6649,
      "Gra": 6650,
      "nuzz": 6651,
      "tran": 6652,
      "recor": 6653,
      "lever": 6654,
      "cept": 6655,
      "playtime": 6656,
      "wobble": 6657,
      "teles": 6658,
      "blinking": 6659,
      "cleaner": 6660,
      "duckling": 6661,
      "results": 6662,
      "wakes": 6663,
      "designs": 6664,
      "pupils": 6665,
      "reversed": 6666,
      "arranged": 6667,
      "telescope": 6668,
      "Sleep": 6669,
      "dred": 6670,
      "tar": 6671,
      "tiss": 6672,
      "reunited": 6673,
      "sewed": 6674,
      "dot": 6675,
      "quie": 6676,
      "tapped": 6677,
      "conqu": 6678,
      "planting": 6679,
      "distra": 6680,
      "appreciated": 6681,
      "scurry": 6682,
      "Kevin": 6683,
      "cottage": 6684,
      "Pippa": 6685,
      "several": 6686,
      "lody": 6687,
      "locks": 6688,
      "idey": 6689,
      "stopping": 6690,
      "JoJo": 6691,
      "blocked": 6692,
      "correct": 6693,
      "despite": 6694,
      "ships": 6695,
      "slither": 6696,
      "grandchild": 6697,
      "brushing": 6698,
      "travels": 6699,
      "Spidey": 6700,
      "shovels": 6701,
      "disturbing": 6702,
      "Jod": 6703,
      "Ka": 6704,
      "jack": 6705,
      "toward": 6706,
      "ening": 6707,
      "force": 6708,
      "fact": 6709,
      "surprising": 6710,
      "fills": 6711,
      "sparks": 6712,
      "heartbroken": 6713,
      "Elsa": 6714,
      "calmly": 6715,
      "driveway": 6716,
      "seller": 6717,
      "angels": 6718,
      "burger": 6719,
      "material": 6720,
      "garbage": 6721,
      "Bow": 6722,
      "Gary": 6723,
      "ashed": 6724,
      "ippy": 6725,
      "lent": 6726,
      "sim": 6727,
      "stitches": 6728,
      "sewing": 6729,
      "soaking": 6730,
      "loops": 6731,
      "beautifully": 6732,
      "tablet": 6733,
      "swimsuit": 6734,
      "pennies": 6735,
      "mailed": 6736,
      "shrug": 6737,
      "battle": 6738,
      "luckily": 6739,
      "Jonny": 6740,
      "snowflakes": 6741,
      "Speedy": 6742,
      "gras": 6743,
      "goodby": 6744,
      "greet": 6745,
      "bless": 6746,
      "forests": 6747,
      "sweetest": 6748,
      "packages": 6749,
      "believing": 6750,
      "rotting": 6751,
      "Goodnight": 6752,
      "Freddie": 6753,
      "Megan": 6754,
      "tubes": 6755,
      "Snowman": 6756,
      "damaged": 6757,
      "accomplished": 6758,
      "Deal": 6759,
      "quieter": 6760,
      "goodbyes": 6761,
      "œMom": 6762,
      "œOf": 6763,
      "œIf": 6764,
      "issa": 6765,
      "rier": 6766,
      "doorway": 6767,
      "Does": 6768,
      "spooky": 6769,
      "artwork": 6770,
      "grows": 6771,
      "gesture": 6772,
      "tidied": 6773,
      "supported": 6774,
      "ezes": 6775,
      "Hope": 6776,
      "knots": 6777,
      "...\"": 6778,
      "vehicles": 6779,
      "weeds": 6780,
      "refuse": 6781,
      "Feeling": 6782,
      "Hallo": 6783,
      "Ly": 6784,
      "Nana": 6785,
      "Smo": 6786,
      "congratul": 6787,
      "mered": 6788,
      "pins": 6789,
      "trotted": 6790,
      "œThe": 6791,
      "ammy": 6792,
      "thatâ": 6793,
      "Jojo": 6794,
      "tricycle": 6795,
      "purr": 6796,
      "merma": 6797,
      "imagin": 6798,
      "reminding": 6799,
      "wealth": 6800,
      "cuddles": 6801,
      "clues": 6802,
      "repeating": 6803,
      "risks": 6804,
      "permitted": 6805,
      "Claus": 6806,
      "Zoomy": 6807,
      "masterpiece": 6808,
      "Halloween": 6809,
      "Woo": 6810,
      "awoke": 6811,
      "asers": 6812,
      "girlâ": 6813,
      "posit": 6814,
      "blu": 6815,
      "handing": 6816,
      "compe": 6817,
      "flowing": 6818,
      "biting": 6819,
      "chocolates": 6820,
      "erosity": 6821,
      "hundred": 6822,
      "otters": 6823,
      "quarreling": 6824,
      "exercises": 6825,
      "conversation": 6826,
      "?!\"": 6827,
      "Ever": 6828,
      "Phil": 6829,
      "chant": 6830,
      "bots": 6831,
      "except": 6832,
      "whose": 6833,
      "yelped": 6834,
      "understands": 6835,
      "tasting": 6836,
      "belongings": 6837,
      "desper": 6838,
      "breathing": 6839,
      "slipping": 6840,
      "stumble": 6841,
      "whispering": 6842,
      "frowns": 6843,
      "Start": 6844,
      "scram": 6845,
      "Alan": 6846,
      "pigeons": 6847,
      "cobwebs": 6848,
      "discussing": 6849,
      "Hoot": 6850,
      "anticip": 6851,
      "Ana": 6852,
      "Eva": 6853,
      "Fre": 6854,
      "Isn": 6855,
      "Izzy": 6856,
      "Lion": 6857,
      "idence": 6858,
      "sets": 6859,
      "vegg": 6860,
      "ighting": 6861,
      "creams": 6862,
      "misch": 6863,
      "probab": 6864,
      "paintbrush": 6865,
      "trusting": 6866,
      "Seeing": 6867,
      "Stitch": 6868,
      "mosquitoes": 6869,
      "admiration": 6870,
      "responsib": 6871,
      "suffering": 6872,
      "Janie": 6873,
      "Outside": 6874,
      "Olivia": 6875,
      "Tiger": 6876,
      "probably": 6877,
      "Barry": 6878,
      "Fighting": 6879,
      "Jas": 6880,
      "Twink": 6881,
      "Vel": 6882,
      "aim": 6883,
      "afar": 6884,
      "œOkay": 6885,
      "ative": 6886,
      "mood": 6887,
      "thoughts": 6888,
      "cheers": 6889,
      "ilda": 6890,
      "hairdresser": 6891,
      "wisely": 6892,
      "images": 6893,
      "generosity": 6894,
      "flip": 6895,
      "squeaked": 6896,
      "guessing": 6897,
      "sniffing": 6898,
      "decisions": 6899,
      "annoyed": 6900,
      "Velvet": 6901,
      "Ca": 6902,
      "Er": 6903,
      "Kids": 6904,
      "ties": 6905,
      "€,": 6906,
      "ider": 6907,
      "address": 6908,
      "lyn": 6909,
      "treated": 6910,
      "acle": 6911,
      "custom": 6912,
      "squir": 6913,
      "tighter": 6914,
      "covering": 6915,
      "Elle": 6916,
      "solving": 6917,
      "squeezing": 6918,
      "Marie": 6919,
      "Patch": 6920,
      "concert": 6921,
      "tissue": 6922,
      "anticipation": 6923,
      "veggies": 6924,
      "Twinkle": 6925,
      "customers": 6926,
      "Nora": 6927,
      "Pu": 6928,
      "dump": 6929,
      "tweet": 6930,
      "tipped": 6931,
      "œBut": 6932,
      "insp": 6933,
      "forgiving": 6934,
      "pedaled": 6935,
      "snowball": 6936,
      "Elsie": 6937,
      "serv": 6938,
      "cowboy": 6939,
      "flips": 6940,
      "Poor": 6941,
      "nibbled": 6942,
      "Excitedly": 6943,
      "Cara": 6944,
      "Hurry": 6945,
      "œWhere": 6946,
      "robots": 6947,
      "kings": 6948,
      "Which": 6949,
      "Becky": 6950,
      "bandages": 6951,
      "presented": 6952,
      "grandfather": 6953,
      "grandson": 6954,
      "Ruth": 6955,
      "speeding": 6956,
      "tires": 6957,
      "passports": 6958,
      "Katy": 6959,
      "wiggly": 6960,
      "tumbled": 6961,
      "Quackers": 6962,
      "insisting": 6963,
      "scrambled": 6964,
      "Mu": 6965,
      "Other": 6966,
      "Say": 6967,
      "zed": 6968,
      "although": 6969,
      "shrunk": 6970,
      "untie": 6971,
      "fins": 6972,
      "magnif": 6973,
      "jud": 6974,
      "business": 6975,
      "bats": 6976,
      "prayers": 6977,
      "experien": 6978,
      "uniforms": 6979,
      "reassured": 6980,
      "Gemma": 6981,
      "Mam": 6982,
      "Se": 6983,
      "Sw": 6984,
      "cour": 6985,
      "sill": 6986,
      "vines": 6987,
      "ister": 6988,
      "deed": 6989,
      "nasty": 6990,
      "untied": 6991,
      "cons": 6992,
      "marve": 6993,
      "syrup": 6994,
      "seashell": 6995,
      "Peggy": 6996,
      "prick": 6997,
      "apologised": 6998,
      "ghosts": 6999,
      "bothering": 7000,
      "lipstick": 7001,
      "inchworm": 7002,
      "Amanda": 7003,
      "instruments": 7004,
      "Angel": 7005,
      "nearest": 7006,
      "scientist": 7007,
      "wrigg": 7008,
      "mermaid": 7009,
      "Ricky": 7010,
      "munk": 7011,
      "osh": 7012,
      "py": 7013,
      "zing": 7014,
      "inter": 7015,
      "encounter": 7016,
      "Shelly": 7017,
      "unfortunately": 7018,
      "joked": 7019,
      "bracele": 7020,
      "dangers": 7021,
      "scent": 7022,
      "Pepper": 7023,
      "giggles": 7024,
      "toolbox": 7025,
      "footsteps": 7026,
      "diamonds": 7027,
      "cocoon": 7028,
      "scooters": 7029,
      "gazing": 7030,
      "laptop": 7031,
      "encouragement": 7032,
      "congratulated": 7033,
      "bracelets": 7034,
      "Hank": 7035,
      "Right": 7036,
      "date": 7037,
      "ppa": 7038,
      "within": 7039,
      "rather": 7040,
      "smashed": 7041,
      "manners": 7042,
      "type": 7043,
      "squin": 7044,
      "pleaded": 7045,
      "purpose": 7046,
      "cleared": 7047,
      "crowns": 7048,
      "discoveries": 7049,
      "honking": 7050,
      "Jean": 7051,
      "confidence": 7052,
      "Spring": 7053,
      "inspired": 7054,
      "Pin": 7055,
      "Rav": 7056,
      "Wor": 7057,
      "grip": 7058,
      "œHey": 7059,
      "argum": 7060,
      "ilities": 7061,
      "shorts": 7062,
      "goodies": 7063,
      "thanking": 7064,
      "builder": 7065,
      "chea": 7066,
      "uctor": 7067,
      "warmly": 7068,
      "beehive": 7069,
      "drift": 7070,
      "teachers": 7071,
      "osite": 7072,
      "reminds": 7073,
      "Bobbie": 7074,
      "camel": 7075,
      "toothbrush": 7076,
      "statues": 7077,
      "twisting": 7078,
      "delayed": 7079,
      "swayed": 7080,
      "cotton": 7081,
      "Melissa": 7082,
      "opposite": 7083,
      "Ravi": 7084,
      "Ally": 7085,
      "Choo": 7086,
      "Dory": 7087,
      "Fortun": 7088,
      "Trust": 7089,
      "clicked": 7090,
      "œPlease": 7091,
      "rely": 7092,
      "sess": 7093,
      "chilly": 7094,
      "teen": 7095,
      "Joanna": 7096,
      "flock": 7097,
      "swimmer": 7098,
      "ugging": 7099,
      "granddaughter": 7100,
      "humming": 7101,
      "figures": 7102,
      "sharks": 7103,
      "Alright": 7104,
      "conductor": 7105,
      "seagulls": 7106,
      "Liam": 7107,
      "thorns": 7108,
      "manager": 7109,
      "experienced": 7110,
      "Mamma": 7111,
      "Fortunately": 7112,
      "Pink": 7113,
      "Ty": 7114,
      "Taking": 7115,
      "aware": 7116,
      "ration": 7117,
      "heaven": 7118,
      "ilted": 7119,
      "antha": 7120,
      "Samantha": 7121,
      "joins": 7122,
      "spits": 7123,
      "tops": 7124,
      "Looking": 7125,
      "cupcake": 7126,
      "jobs": 7127,
      "comforting": 7128,
      "Peppa": 7129,
      "flick": 7130,
      "decoration": 7131,
      "nurses": 7132,
      "whistles": 7133,
      "emerged": 7134,
      "spills": 7135,
      "rescuing": 7136,
      "Oliver": 7137,
      "astronauts": 7138,
      "wrinkled": 7139,
      "scurrying": 7140,
      "Brad": 7141,
      "Care": 7142,
      "Mona": 7143,
      "Pick": 7144,
      "Sup": 7145,
      "Snap": 7146,
      "Shar": 7147,
      "ashes": 7148,
      "gap": 7149,
      "erk": 7150,
      "stall": 7151,
      "tho": 7152,
      "classm": 7153,
      "displayed": 7154,
      "dressing": 7155,
      "squished": 7156,
      "foxes": 7157,
      "explains": 7158,
      "dripping": 7159,
      "jars": 7160,
      "scarecrow": 7161,
      "chipmunk": 7162,
      "peeled": 7163,
      "activity": 7164,
      "nibble": 7165,
      "swaying": 7166,
      "Libby": 7167,
      "opportun": 7168,
      "sweaty": 7169,
      "forgiveness": 7170,
      "responded": 7171,
      "aisle": 7172,
      "Annabelle": 7173,
      "Jasmine": 7174,
      "Ray": 7175,
      "Satur": 7176,
      "Willi": 7177,
      "tment": 7178,
      "vive": 7179,
      "œGood": 7180,
      "beating": 7181,
      "focus": 7182,
      "sped": 7183,
      "brains": 7184,
      "slowed": 7185,
      "purrs": 7186,
      "elect": 7187,
      "scul": 7188,
      "million": 7189,
      "Bubb": 7190,
      "Mae": 7191,
      "officers": 7192,
      "swollen": 7193,
      "characters": 7194,
      "simply": 7195,
      "Saturday": 7196,
      "William": 7197,
      "Abi": 7198,
      "Gu": 7199,
      "Im": 7200,
      "Open": 7201,
      "œWho": 7202,
      "wasting": 7203,
      "iscu": 7204,
      "shimmering": 7205,
      "Youâ": 7206,
      "whoever": 7207,
      "shall": 7208,
      "survive": 7209,
      "visits": 7210,
      "psed": 7211,
      "turtles": 7212,
      "rats": 7213,
      "vibr": 7214,
      "paddling": 7215,
      "increasing": 7216,
      "Crabby": 7217,
      "routine": 7218,
      "collapsed": 7219,
      "nuzzled": 7220,
      "Startled": 7221,
      "encountered": 7222,
      "Grac": 7223,
      "Jona": 7224,
      "Sk": 7225,
      "Terry": 7226,
      "stals": 7227,
      "peas": 7228,
      "grat": 7229,
      "birdhouse": 7230,
      "cares": 7231,
      "acy": 7232,
      "tentacles": 7233,
      "hardest": 7234,
      "Paw": 7235,
      "Boys": 7236,
      "teams": 7237,
      "extraordinary": 7238,
      "Rudolph": 7239,
      "slee": 7240,
      "beaming": 7241,
      "applauding": 7242,
      "rrr": 7243,
      "tummies": 7244,
      "steering": 7245,
      "Joanne": 7246,
      "trans": 7247,
      "Gracie": 7248,
      "Ano": 7249,
      "Dear": 7250,
      "Duck": 7251,
      "Man": 7252,
      "fond": 7253,
      "lasers": 7254,
      "bec": 7255,
      "plugged": 7256,
      "soo": 7257,
      "raising": 7258,
      "range": 7259,
      "declar": 7260,
      "waters": 7261,
      "clerk": 7262,
      "expert": 7263,
      "gardens": 7264,
      "winding": 7265,
      "stetho": 7266,
      "nights": 7267,
      "germs": 7268,
      "storms": 7269,
      "flipped": 7270,
      "tidying": 7271,
      "questioned": 7272,
      "sheets": 7273,
      "meowing": 7274,
      "repairman": 7275,
      "novels": 7276,
      "bothered": 7277,
      "glittering": 7278,
      "sadder": 7279,
      "correctly": 7280,
      "Super": 7281,
      "classmates": 7282,
      "gratitude": 7283,
      "Another": 7284,
      "Again": 7285,
      "Fion": 7286,
      "Per": 7287,
      "Sir": 7288,
      "bitten": 7289,
      "œSee": 7290,
      "intent": 7291,
      "forgives": 7292,
      "peep": 7293,
      "parted": 7294,
      "quet": 7295,
      "beaver": 7296,
      "doorbell": 7297,
      "crystals": 7298,
      "movements": 7299,
      "riverbank": 7300,
      "gues": 7301,
      "rows": 7302,
      "rowed": 7303,
      "curl": 7304,
      "breaths": 7305,
      "soapy": 7306,
      "changes": 7307,
      "envelopes": 7308,
      "tearing": 7309,
      "darlings": 7310,
      "labels": 7311,
      "Friend": 7312,
      "Anytime": 7313,
      "occasion": 7314,
      "recorder": 7315,
      "declared": 7316,
      "Fiona": 7317,
      "Zee": 7318,
      "bou": 7319,
      "rew": 7320,
      "loses": 7321,
      "conv": 7322,
      "brightest": 7323,
      "squaw": 7324,
      "nests": 7325,
      "sweep": 7326,
      "pizzas": 7327,
      "checkout": 7328,
      "windowsill": 7329,
      "magazines": 7330,
      "prevented": 7331,
      "textures": 7332,
      "attacked": 7333,
      "munching": 7334,
      "stethoscope": 7335,
      "bouquet": 7336,
      "Ed": 7337,
      "Nancy": 7338,
      "ause": 7339,
      "bond": 7340,
      "lor": 7341,
      "ali": 7342,
      "wenty": 7343,
      "failed": 7344,
      "taped": 7345,
      "fleas": 7346,
      "custo": 7347,
      "airplanes": 7348,
      "floors": 7349,
      "guide": 7350,
      "sprout": 7351,
      "clearly": 7352,
      "flashed": 7353,
      "flaps": 7354,
      "Martin": 7355,
      "vests": 7356,
      "beeped": 7357,
      "Magic": 7358,
      "applause": 7359,
      "banged": 7360,
      "expecting": 7361,
      "Bonnie": 7362,
      "enemy": 7363,
      "argument": 7364,
      "cheaper": 7365,
      "Jonathan": 7366,
      "Ice": 7367,
      "Ri": 7368,
      "Sand": 7369,
      "buddy": 7370,
      "buses": 7371,
      "plug": 7372,
      "chin": 7373,
      "smoking": 7374,
      "ability": 7375,
      "angle": 7376,
      "quilt": 7377,
      "ives": 7378,
      "exploded": 7379,
      "convin": 7380,
      "airy": 7381,
      "bathing": 7382,
      "petting": 7383,
      "Behind": 7384,
      "designing": 7385,
      "picnics": 7386,
      "stretches": 7387,
      "crocodiles": 7388,
      "environ": 7389,
      "languages": 7390,
      "conquered": 7391,
      "Muffin": 7392,
      "Bubba": 7393,
      "convinced": 7394,
      "environment": 7395,
      "Eliz": 7396,
      "ime": 7397,
      "fet": 7398,
      "ittered": 7399,
      "whoosh": 7400,
      "switched": 7401,
      "spy": 7402,
      "exploration": 7403,
      "Johny": 7404,
      "closing": 7405,
      "nodding": 7406,
      "fires": 7407,
      "pleas": 7408,
      "relaxing": 7409,
      "supplied": 7410,
      "tickling": 7411,
      "fascinating": 7412,
      "sternly": 7413,
      "expression": 7414,
      "imaginary": 7415,
      "court": 7416,
      "sculpt": 7417,
      "customer": 7418,
      "Eliza": 7419,
      "Ac": 7420,
      "Make": 7421,
      "œSure": 7422,
      "llas": 7423,
      "speople": 7424,
      "sunscreen": 7425,
      "observing": 7426,
      "cracks": 7427,
      "minds": 7428,
      "smelt": 7429,
      "townspeople": 7430,
      "Peep": 7431,
      "troubles": 7432,
      "flashing": 7433,
      "Alison": 7434,
      "globe": 7435,
      "scratching": 7436,
      "umbrellas": 7437,
      "pepperoni": 7438,
      "films": 7439,
      "models": 7440,
      "buckled": 7441,
      "Feli": 7442,
      "Birdie": 7443,
      "Monkey": 7444,
      "instrument": 7445,
      "instantly": 7446,
      "Bounce": 7447,
      "sculpture": 7448,
      "''": 7449,
      "Sweet": 7450,
      "awhile": 7451,
      "gallo": 7452,
      "twenty": 7453,
      "whim": 7454,
      "waded": 7455,
      "lope": 7456,
      "utter": 7457,
      "mommies": 7458,
      "getic": 7459,
      "tapping": 7460,
      "cled": 7461,
      "singers": 7462,
      "snug": 7463,
      "sandy": 7464,
      "scrub": 7465,
      "zooms": 7466,
      "erase": 7467,
      "Robo": 7468,
      "computers": 7469,
      "Allie": 7470,
      "crawls": 7471,
      "offering": 7472,
      "unpacking": 7473,
      "weapons": 7474,
      "particularly": 7475,
      "Arrr": 7476,
      "Colin": 7477,
      "Fish": 7478,
      "Sasha": 7479,
      "Tammy": 7480,
      "fain": 7481,
      "inches": 7482,
      "rewards": 7483,
      "momâ": 7484,
      "ievous": 7485,
      "compan": 7486,
      "checks": 7487,
      "lotte": 7488,
      "surely": 7489,
      "traded": 7490,
      "glimmering": 7491,
      "sprays": 7492,
      "messes": 7493,
      "Charlotte": 7494,
      "Flora": 7495,
      "burgers": 7496,
      "sprinkle": 7497,
      "youngest": 7498,
      "visitors": 7499,
      "Caroline": 7500,
      "mischievous": 7501,
      "prickly": 7502,
      "',": 7503,
      "Con": 7504,
      "Jump": 7505,
      "Roo": 7506,
      "killed": 7507,
      "natur": 7508,
      "rent": 7509,
      "seals": 7510,
      "outfits": 7511,
      "hover": 7512,
      "cops": 7513,
      "foam": 7514,
      "skies": 7515,
      "overhead": 7516,
      "badger": 7517,
      "ips": 7518,
      "phones": 7519,
      "Finny": 7520,
      "scen": 7521,
      "scrun": 7522,
      "mysteries": 7523,
      "teapot": 7524,
      "pinching": 7525,
      "orders": 7526,
      "Rudy": 7527,
      "meows": 7528,
      "backpacks": 7529,
      "Blo": 7530,
      "Ele": 7531,
      "Ky": 7532,
      "Sal": 7533,
      "hew": 7534,
      "andas": 7535,
      "int": 7536,
      "insepar": 7537,
      "washes": 7538,
      "immered": 7539,
      "robin": 7540,
      "cooper": 7541,
      "actor": 7542,
      "Jackie": 7543,
      "compar": 7544,
      "donkey": 7545,
      "stew": 7546,
      "snowy": 7547,
      "active": 7548,
      "practised": 7549,
      "testing": 7550,
      "hangers": 7551,
      "burns": 7552,
      "cheerfully": 7553,
      "awful": 7554,
      "Rocky": 7555,
      "terrified": 7556,
      "heels": 7557,
      "sirens": 7558,
      "Matilda": 7559,
      "Freya": 7560,
      "Pinchy": 7561,
      "Immediately": 7562,
      "aliens": 7563,
      "inseparable": 7564,
      "Gus": 7565,
      "Riley": 7566,
      "Stri": 7567,
      "cuc": 7568,
      "signing": 7569,
      "œMaybe": 7570,
      "haven": 7571,
      "ering": 7572,
      "necess": 7573,
      "sometime": 7574,
      "hotter": 7575,
      "Butter": 7576,
      "lowered": 7577,
      "clut": 7578,
      "cheated": 7579,
      "keepers": 7580,
      "leaking": 7581,
      "Thankfully": 7582,
      "concent": 7583,
      "sandpit": 7584,
      "Jennie": 7585,
      "minded": 7586,
      "Leah": 7587,
      "blown": 7588,
      "checking": 7589,
      "wiser": 7590,
      "returning": 7591,
      "scolds": 7592,
      "traveling": 7593,
      "experiences": 7594,
      "container": 7595,
      "More": 7596,
      "stamped": 7597,
      "twists": 7598,
      "robbers": 7599,
      "Hootie": 7600,
      "dodged": 7601,
      "earned": 7602,
      "defeated": 7603,
      "companion": 7604,
      "Ar": 7605,
      "Doug": 7606,
      "Girl": 7607,
      "Lenny": 7608,
      "Mila": 7609,
      "Show": 7610,
      "gul": 7611,
      "shat": 7612,
      "whel": 7613,
      "zes": 7614,
      "aret": 7615,
      "shor": 7616,
      "carries": 7617,
      "backs": 7618,
      "shallow": 7619,
      "venir": 7620,
      "common": 7621,
      "Lots": 7622,
      "cowboys": 7623,
      "Whoever": 7624,
      "apology": 7625,
      "guarding": 7626,
      "energetic": 7627,
      "knocking": 7628,
      "Liza": 7629,
      "Quickly": 7630,
      "wounds": 7631,
      "souvenir": 7632,
      "squinted": 7633,
      "Orange": 7634,
      "Zack": 7635,
      "mun": 7636,
      "ssess": 7637,
      "wig": 7638,
      "reappeared": 7639,
      "adds": 7640,
      "momma": 7641,
      "roast": 7642,
      "possess": 7643,
      "ddie": 7644,
      "cia": 7645,
      "overwhel": 7646,
      "combed": 7647,
      "traps": 7648,
      "mattered": 7649,
      "Juli": 7650,
      "groan": 7651,
      "communic": 7652,
      "weighing": 7653,
      "risk": 7654,
      "quacking": 7655,
      "tips": 7656,
      "floats": 7657,
      "snaps": 7658,
      "rumbling": 7659,
      "hunting": 7660,
      "behaviour": 7661,
      "Bouncy": 7662,
      "temptation": 7663,
      "Wooly": 7664,
      "opportunity": 7665,
      "convince": 7666,
      "natural": 7667,
      "shorter": 7668,
      "Bugg": 7669,
      "Dra": 7670,
      "Fa": 7671,
      "Foxy": 7672,
      "Life": 7673,
      "bound": 7674,
      "puck": 7675,
      "pandas": 7676,
      "tilted": 7677,
      "vor": 7678,
      "oma": 7679,
      "rick": 7680,
      "adually": 7681,
      "pea": 7682,
      "elle": 7683,
      "details": 7684,
      "faith": 7685,
      "grily": 7686,
      "ruff": 7687,
      "types": 7688,
      "spies": 7689,
      "soundly": 7690,
      "scribb": 7691,
      "destroying": 7692,
      "quarre": 7693,
      "Catty": 7694,
      "repeats": 7695,
      "Auntie": 7696,
      "Stanley": 7697,
      "Bruce": 7698,
      "responsibility": 7699,
      "vibrant": 7700,
      "Sandra": 7701,
      "necessary": 7702,
      "munched": 7703,
      "Apr": 7704,
      "Ber": 7705,
      "Du": 7706,
      "longest": 7707,
      "ying": 7708,
      "œBe": 7709,
      "stantly": 7710,
      "amboo": 7711,
      "upside": 7712,
      "melody": 7713,
      "whatâ": 7714,
      "napped": 7715,
      "blank": 7716,
      "queens": 7717,
      "swap": 7718,
      "student": 7719,
      "answering": 7720,
      "wildflowers": 7721,
      "gasp": 7722,
      "digs": 7723,
      "whales": 7724,
      "scares": 7725,
      "successfully": 7726,
      "cracker": 7727,
      "Albert": 7728,
      "experiment": 7729,
      "Carly": 7730,
      "demanding": 7731,
      "announced": 7732,
      "grumbled": 7733,
      "grassho": 7734,
      "peeped": 7735,
      "shattered": 7736,
      "April": 7737,
      "Bark": 7738,
      "Hmm": 7739,
      "Lina": 7740,
      "Rich": 7741,
      "cine": 7742,
      "mow": 7743,
      "œOk": 7744,
      "thump": 7745,
      "amused": 7746,
      "poles": 7747,
      "poses": 7748,
      "treas": 7749,
      "bbit": 7750,
      "cting": 7751,
      "brake": 7752,
      "cubs": 7753,
      "discouraged": 7754,
      "glided": 7755,
      "glittered": 7756,
      "cidents": 7757,
      "ounce": 7758,
      "squeaky": 7759,
      "microwave": 7760,
      "knives": 7761,
      "thicker": 7762,
      "Step": 7763,
      "goats": 7764,
      "strips": 7765,
      "bounces": 7766,
      "hunters": 7767,
      "spilling": 7768,
      "providing": 7769,
      "ibly": 7770,
      "slithered": 7771,
      "wriggled": 7772,
      "Ribbit": 7773,
      "Accidents": 7774,
      "concentr": 7775,
      "Buggy": 7776,
      "Alf": 7777,
      "Dino": 7778,
      "Eddie": 7779,
      "Na": 7780,
      "Silly": 7781,
      "fif": 7782,
      "plo": 7783,
      "ramp": 7784,
      "swat": 7785,
      "vas": 7786,
      "anie": 7787,
      "ita": 7788,
      "erg": 7789,
      "local": 7790,
      "unable": 7791,
      "unfamiliar": 7792,
      "liar": 7793,
      "oks": 7794,
      "cafe": 7795,
      "bbing": 7796,
      "bud": 7797,
      "Jackâ": 7798,
      "watermelon": 7799,
      "Andrew": 7800,
      "shines": 7801,
      "bluebird": 7802,
      "crou": 7803,
      "born": 7804,
      "baa": 7805,
      "drowned": 7806,
      "kayaking": 7807,
      "calmer": 7808,
      "moonlight": 7809,
      "tunes": 7810,
      "gasps": 7811,
      "tanks": 7812,
      "compliment": 7813,
      "Sparkle": 7814,
      "salon": 7815,
      "opinions": 7816,
      "chanted": 7817,
      "Swim": 7818,
      "Tyler": 7819,
      "pleasant": 7820,
      "Ping": 7821,
      "Rat": 7822,
      "Wigg": 7823,
      "fus": 7824,
      "tions": 7825,
      "inspe": 7826,
      "enem": 7827,
      "necks": 7828,
      "ricity": 7829,
      "moat": 7830,
      "canvas": 7831,
      "maje": 7832,
      "whined": 7833,
      "papa": 7834,
      "olf": 7835,
      "joyfully": 7836,
      "realizes": 7837,
      "cleans": 7838,
      "torto": 7839,
      "craf": 7840,
      "Gray": 7841,
      "dryer": 7842,
      "pressing": 7843,
      "circled": 7844,
      "tests": 7845,
      "embarrassing": 7846,
      "honesty": 7847,
      "burnt": 7848,
      "croaked": 7849,
      "engines": 7850,
      "Patrick": 7851,
      "Rufus": 7852,
      "vinegar": 7853,
      "luckiest": 7854,
      "freezing": 7855,
      "snapping": 7856,
      "matey": 7857,
      "Minnie": 7858,
      "compete": 7859,
      "overwhelmed": 7860,
      "Duke": 7861,
      "grasshopper": 7862,
      "enemies": 7863,
      "Cher": 7864,
      "Jason": 7865,
      "Te": 7866,
      "aboard": 7867,
      "bamboo": 7868,
      "ix": 7869,
      "lump": 7870,
      "pip": 7871,
      "inju": 7872,
      "ared": 7873,
      "orrow": 7874,
      "aming": 7875,
      "hisses": 7876,
      "elbow": 7877,
      "def": 7878,
      "dears": 7879,
      "funn": 7880,
      "faction": 7881,
      "lleng": 7882,
      "bbling": 7883,
      "bride": 7884,
      "enjoyable": 7885,
      "meaning": 7886,
      "snorted": 7887,
      "prod": 7888,
      "challeng": 7889,
      "explaining": 7890,
      "harvest": 7891,
      "vast": 7892,
      "bubbly": 7893,
      "hummed": 7894,
      "miracle": 7895,
      "protection": 7896,
      "squeezes": 7897,
      "caterpillars": 7898,
      "crops": 7899,
      "messages": 7900,
      "aeroplanes": 7901,
      "Cook": 7902,
      "Sunshine": 7903,
      "satisfaction": 7904,
      "pantry": 7905,
      "judges": 7906,
      "intently": 7907,
      "treasured": 7908,
      "Ami": 7909,
      "Cro": 7910,
      "Imag": 7911,
      "Nur": 7912,
      "Over": 7913,
      "Sa": 7914,
      "Tru": 7915,
      "Wal": 7916,
      "biscu": 7917,
      "passes": 7918,
      "shave": 7919,
      "sipped": 7920,
      "ands": 7921,
      "invent": 7922,
      "idnight": 7923,
      "hiss": 7924,
      "weâ": 7925,
      "chill": 7926,
      "raking": 7927,
      "moons": 7928,
      "icle": 7929,
      "preschool": 7930,
      "cheat": 7931,
      "ketch": 7932,
      "beast": 7933,
      "finishes": 7934,
      "Whatâ": 7935,
      "Through": 7936,
      "leap": 7937,
      "bloss": 7938,
      "snor": 7939,
      "cris": 7940,
      "welcoming": 7941,
      "barrow": 7942,
      "drill": 7943,
      "roller": 7944,
      "boards": 7945,
      "dashed": 7946,
      "attitude": 7947,
      "bruises": 7948,
      "meadows": 7949,
      "stuffing": 7950,
      "cherish": 7951,
      "Hopper": 7952,
      "awn": 7953,
      "beeping": 7954,
      "Carla": 7955,
      "chatted": 7956,
      "situations": 7957,
      "Prince": 7958,
      "revealing": 7959,
      "Matty": 7960,
      "Amber": 7961,
      "swirls": 7962,
      "annoying": 7963,
      "Skip": 7964,
      "Nurse": 7965,
      "Cow": 7966,
      "Pene": 7967,
      "TH": 7968,
      "Tri": 7969,
      "fade": 7970,
      "gger": 7971,
      "jured": 7972,
      "€¦": 7973,
      "timid": 7974,
      "popping": 7975,
      "lowers": 7976,
      "Weâ": 7977,
      "sprang": 7978,
      "chopping": 7979,
      "medals": 7980,
      "Peanut": 7981,
      "flashes": 7982,
      "Chick": 7983,
      "beetles": 7984,
      "guards": 7985,
      "rewarding": 7986,
      "improving": 7987,
      "tickles": 7988,
      "meatballs": 7989,
      "Moon": 7990,
      "œWeâ": 7991,
      "target": 7992,
      "distracted": 7993,
      "positive": 7994,
      "Carefully": 7995,
      "electricity": 7996,
      "faint": 7997,
      "compared": 7998,
      "tortoise": 7999
    },
    "merges": [
      [
        "h",
        "e"
      ],
      [
        "a",
        "n"
      ],
      [
        "t",
        "he"
      ],
      [
        "e",
        "d"
      ],
      [
        "an",
        "d"
      ],
      [
        "t",
        "o"
      ],
      [
        "i",
        "n"
      ],
      [
        "r",
        "e"
      ],
      [
        "w",
        "a"
      ],
      [
        "o",
        "u"
      ],
      [
        "i",
        "t"
      ],
      [
        "h",
        "a"
      ],
      [
        "e",
        "r"
      ],
      [
        "wa",
        "s"
      ],
      [
        "o",
        "m"
      ],
      [
        "e",
        "n"
      ],
      [
        "o",
        "n"
      ],
      [
        "a",
        "r"
      ],
      [
        "T",
        "he"
      ],
      [
        "i",
        "s"
      ],
      [
        "in",
        "g"
      ],
      [
        "i",
        "l"
      ],
      [
        "s",
        "a"
      ],
      [
        "i",
        "d"
      ],
      [
        "l",
        "e"
      ],
      [
        "a",
        "y"
      ],
      [
        "i",
        "m"
      ],
      [
        "l",
        "o"
      ],
      [
        "a",
        "l"
      ],
      [
        "s",
        "t"
      ],
      [
        "o",
        "r"
      ],
      [
        "he",
        "r"
      ],
      [
        "H",
        "e"
      ],
      [
        "S",
        "he"
      ],
      [
        "i",
        "r"
      ],
      [
        "t",
        "h"
      ],
      [
        "The",
        "y"
      ],
      [
        "b",
        "e"
      ],
      [
        "n",
        "e"
      ],
      [
        "v",
        "er"
      ],
      [
        "ha",
        "t"
      ],
      [
        "u",
        "t"
      ],
      [
        "s",
        "e"
      ],
      [
        "k",
        "e"
      ],
      [
        "a",
        "t"
      ],
      [
        "n",
        "o"
      ],
      [
        "l",
        "d"
      ],
      [
        "c",
        "k"
      ],
      [
        "c",
        "e"
      ],
      [
        "a",
        "m"
      ],
      [
        "v",
        "e"
      ],
      [
        "r",
        "i"
      ],
      [
        "sa",
        "id"
      ],
      [
        "il",
        "y"
      ],
      [
        "s",
        "he"
      ],
      [
        "p",
        "l"
      ],
      [
        "p",
        "p"
      ],
      [
        "it",
        "h"
      ],
      [
        "o",
        "f"
      ],
      [
        "h",
        "is"
      ],
      [
        "w",
        "ith"
      ],
      [
        "i",
        "g"
      ],
      [
        "a",
        "d"
      ],
      [
        "L",
        "ily"
      ],
      [
        "u",
        "n"
      ],
      [
        "s",
        "o"
      ],
      [
        "k",
        "ed"
      ],
      [
        "d",
        "ay"
      ],
      [
        "l",
        "y"
      ],
      [
        "y",
        "ou"
      ],
      [
        "ver",
        "y"
      ],
      [
        "om",
        "e"
      ],
      [
        "w",
        "e"
      ],
      [
        "l",
        "i"
      ],
      [
        "t",
        "hat"
      ],
      [
        "u",
        "p"
      ],
      [
        "m",
        "y"
      ],
      [
        "g",
        "o"
      ],
      [
        "o",
        "w"
      ],
      [
        "an",
        "t"
      ],
      [
        "c",
        "h"
      ],
      [
        "ha",
        "d"
      ],
      [
        "a",
        "s"
      ],
      [
        "e",
        "s"
      ],
      [
        "pl",
        "ay"
      ],
      [
        "the",
        "y"
      ],
      [
        "f",
        "or"
      ],
      [
        "f",
        "e"
      ],
      [
        "m",
        "om"
      ],
      [
        "n",
        "d"
      ],
      [
        "ou",
        "ld"
      ],
      [
        "al",
        "l"
      ],
      [
        "en",
        "d"
      ],
      [
        "ha",
        "pp"
      ],
      [
        "b",
        "o"
      ],
      [
        "en",
        "t"
      ],
      [
        "g",
        "e"
      ],
      [
        "it",
        "t"
      ],
      [
        "w",
        "ant"
      ],
      [
        "o",
        "k"
      ],
      [
        "t",
        "im"
      ],
      [
        "a",
        "re"
      ],
      [
        "I",
        "t"
      ],
      [
        "ou",
        "t"
      ],
      [
        "d",
        "o"
      ],
      [
        "ou",
        "nd"
      ],
      [
        "r",
        "o"
      ],
      [
        "no",
        "t"
      ],
      [
        "itt",
        "le"
      ],
      [
        "tim",
        "e"
      ],
      [
        "the",
        "r"
      ],
      [
        "the",
        "re"
      ],
      [
        "l",
        "ittle"
      ],
      [
        "happ",
        "y"
      ],
      [
        "r",
        "a"
      ],
      [
        "h",
        "t"
      ],
      [
        "s",
        "h"
      ],
      [
        "r",
        "y"
      ],
      [
        "b",
        "ig"
      ],
      [
        "s",
        "m"
      ],
      [
        "b",
        "ut"
      ],
      [
        "f",
        "ri"
      ],
      [
        "a",
        "ke"
      ],
      [
        "sa",
        "w"
      ],
      [
        "y",
        "s"
      ],
      [
        "fri",
        "end"
      ],
      [
        "t",
        "er"
      ],
      [
        "a",
        "ck"
      ],
      [
        "th",
        "ing"
      ],
      [
        "s",
        "ome"
      ],
      [
        "u",
        "l"
      ],
      [
        ".",
        "\""
      ],
      [
        "O",
        "ne"
      ],
      [
        "on",
        "e"
      ],
      [
        "id",
        "e"
      ],
      [
        "O",
        "n"
      ],
      [
        "T",
        "im"
      ],
      [
        "v",
        "ed"
      ],
      [
        "u",
        "g"
      ],
      [
        "On",
        "ce"
      ],
      [
        "we",
        "re"
      ],
      [
        "!",
        "\""
      ],
      [
        "h",
        "o"
      ],
      [
        "h",
        "im"
      ],
      [
        "c",
        "ar"
      ],
      [
        "ir",
        "l"
      ],
      [
        "p",
        "e"
      ],
      [
        "want",
        "ed"
      ],
      [
        "g",
        "irl"
      ],
      [
        "up",
        "on"
      ],
      [
        "e",
        "l"
      ],
      [
        "f",
        "ul"
      ],
      [
        "the",
        "m"
      ],
      [
        "T",
        "om"
      ],
      [
        "u",
        "r"
      ],
      [
        "in",
        "d"
      ],
      [
        "il",
        "l"
      ],
      [
        "a",
        "g"
      ],
      [
        "c",
        "ould"
      ],
      [
        "the",
        "ir"
      ],
      [
        "B",
        "en"
      ],
      [
        "d",
        "id"
      ],
      [
        "c",
        "o"
      ],
      [
        "m",
        "e"
      ],
      [
        "sm",
        "il"
      ],
      [
        "e",
        "x"
      ],
      [
        "m",
        "o"
      ],
      [
        "he",
        "n"
      ],
      [
        "ha",
        "ve"
      ],
      [
        "r",
        "om"
      ],
      [
        "B",
        "ut"
      ],
      [
        "w",
        "ent"
      ],
      [
        "he",
        "l"
      ],
      [
        "t",
        "ed"
      ],
      [
        "c",
        "an"
      ],
      [
        "ne",
        "w"
      ],
      [
        "d",
        "e"
      ],
      [
        "o",
        "d"
      ],
      [
        "n",
        "am"
      ],
      [
        "friend",
        "s"
      ],
      [
        "hel",
        "p"
      ],
      [
        "u",
        "m"
      ],
      [
        "he",
        "d"
      ],
      [
        "a",
        "b"
      ],
      [
        "fe",
        "l"
      ],
      [
        "wa",
        "y"
      ],
      [
        "b",
        "ack"
      ],
      [
        "?",
        "\""
      ],
      [
        "a",
        "in"
      ],
      [
        "s",
        "ide"
      ],
      [
        "f",
        "un"
      ],
      [
        "i",
        "c"
      ],
      [
        "p",
        "ar"
      ],
      [
        "m",
        "an"
      ],
      [
        "f",
        "o"
      ],
      [
        "li",
        "ke"
      ],
      [
        "r",
        "an"
      ],
      [
        "Tim",
        "my"
      ],
      [
        "to",
        "o"
      ],
      [
        "g",
        "ht"
      ],
      [
        "Y",
        "ou"
      ],
      [
        "st",
        "ar"
      ],
      [
        "nam",
        "ed"
      ],
      [
        "p",
        "o"
      ],
      [
        "lo",
        "ved"
      ],
      [
        "smil",
        "ed"
      ],
      [
        "lo",
        "w"
      ],
      [
        "lo",
        "o"
      ],
      [
        "fel",
        "t"
      ],
      [
        "l",
        "a"
      ],
      [
        "s",
        "to"
      ],
      [
        "as",
        "ked"
      ],
      [
        "ar",
        "ound"
      ],
      [
        "ar",
        "d"
      ],
      [
        "i",
        "ck"
      ],
      [
        "loo",
        "ked"
      ],
      [
        "se",
        "e"
      ],
      [
        "e",
        "t"
      ],
      [
        "ow",
        "n"
      ],
      [
        "am",
        "e"
      ],
      [
        "p",
        "r"
      ],
      [
        "M",
        "om"
      ],
      [
        "u",
        "re"
      ],
      [
        "w",
        "ould"
      ],
      [
        "m",
        "ake"
      ],
      [
        "b",
        "ir"
      ],
      [
        "w",
        "or"
      ],
      [
        "f",
        "a"
      ],
      [
        "bo",
        "y"
      ],
      [
        "on",
        "g"
      ],
      [
        "no",
        "w"
      ],
      [
        "o",
        "ther"
      ],
      [
        "g",
        "r"
      ],
      [
        "l",
        "l"
      ],
      [
        "bir",
        "d"
      ],
      [
        "par",
        "k"
      ],
      [
        "m",
        "ad"
      ],
      [
        "w",
        "hat"
      ],
      [
        "o",
        "p"
      ],
      [
        "t",
        "re"
      ],
      [
        "a",
        "way"
      ],
      [
        "i",
        "ce"
      ],
      [
        "c",
        "a"
      ],
      [
        "ge",
        "ther"
      ],
      [
        "s",
        "s"
      ],
      [
        "star",
        "ted"
      ],
      [
        "ou",
        "d"
      ],
      [
        "mad",
        "e"
      ],
      [
        "d",
        "d"
      ],
      [
        "some",
        "thing"
      ],
      [
        ",",
        "\""
      ],
      [
        "c",
        "ame"
      ],
      [
        "to",
        "gether"
      ],
      [
        "t",
        "s"
      ],
      [
        "ig",
        "ht"
      ],
      [
        "it",
        "ed"
      ],
      [
        "sa",
        "ys"
      ],
      [
        "p",
        "ut"
      ],
      [
        "sa",
        "d"
      ],
      [
        "n",
        "a"
      ],
      [
        "go",
        "t"
      ],
      [
        "lo",
        "ok"
      ],
      [
        "ge",
        "t"
      ],
      [
        "ex",
        "c"
      ],
      [
        "f",
        "rom"
      ],
      [
        "h",
        "ome"
      ],
      [
        "ag",
        "ain"
      ],
      [
        "s",
        "car"
      ],
      [
        "m",
        "u"
      ],
      [
        "i",
        "f"
      ],
      [
        "a",
        "ch"
      ],
      [
        "w",
        "ho"
      ],
      [
        "u",
        "e"
      ],
      [
        "the",
        "n"
      ],
      [
        "de",
        "c"
      ],
      [
        "go",
        "od"
      ],
      [
        "f",
        "ound"
      ],
      [
        "wa",
        "l"
      ],
      [
        "ri",
        "ed"
      ],
      [
        "i",
        "e"
      ],
      [
        "c",
        "i"
      ],
      [
        "pp",
        "ed"
      ],
      [
        "e",
        "p"
      ],
      [
        "w",
        "hen"
      ],
      [
        "k",
        "ing"
      ],
      [
        "mo",
        "re"
      ],
      [
        "h",
        "ug"
      ],
      [
        "play",
        "ing"
      ],
      [
        "ou",
        "ght"
      ],
      [
        "al",
        "ly"
      ],
      [
        "a",
        "ve"
      ],
      [
        "thing",
        "s"
      ],
      [
        "exc",
        "ited"
      ],
      [
        "b",
        "y"
      ],
      [
        "r",
        "u"
      ],
      [
        "S",
        "am"
      ],
      [
        "id",
        "ed"
      ],
      [
        "li",
        "ked"
      ],
      [
        "dec",
        "ided"
      ],
      [
        "e",
        "very"
      ],
      [
        "d",
        "er"
      ],
      [
        "ou",
        "s"
      ],
      [
        "u",
        "s"
      ],
      [
        "s",
        "pe"
      ],
      [
        "ou",
        "se"
      ],
      [
        "ar",
        "a"
      ],
      [
        "n",
        "y"
      ],
      [
        "c",
        "are"
      ],
      [
        "u",
        "se"
      ],
      [
        "A",
        "n"
      ],
      [
        "d",
        "own"
      ],
      [
        "th",
        "an"
      ],
      [
        "scar",
        "ed"
      ],
      [
        "f",
        "ind"
      ],
      [
        "a",
        "c"
      ],
      [
        "p",
        "re"
      ],
      [
        "a",
        "x"
      ],
      [
        "you",
        "r"
      ],
      [
        "t",
        "ake"
      ],
      [
        "do",
        "g"
      ],
      [
        "fe",
        "el"
      ],
      [
        "s",
        "ha"
      ],
      [
        "wa",
        "ys"
      ],
      [
        "j",
        "o"
      ],
      [
        "at",
        "e"
      ],
      [
        "d",
        "ad"
      ],
      [
        "u",
        "dd"
      ],
      [
        "W",
        "e"
      ],
      [
        "ar",
        "n"
      ],
      [
        "S",
        "ara"
      ],
      [
        "w",
        "o"
      ],
      [
        "c",
        "lo"
      ],
      [
        "did",
        "n"
      ],
      [
        "M",
        "ax"
      ],
      [
        "al",
        "ways"
      ],
      [
        "ou",
        "r"
      ],
      [
        "An",
        "na"
      ],
      [
        "to",
        "ok"
      ],
      [
        "b",
        "b"
      ],
      [
        "an",
        "g"
      ],
      [
        "he",
        "re"
      ],
      [
        "mom",
        "my"
      ],
      [
        "ab",
        "out"
      ],
      [
        "w",
        "ill"
      ],
      [
        "S",
        "o"
      ],
      [
        "q",
        "u"
      ],
      [
        "er",
        "s"
      ],
      [
        "it",
        "e"
      ],
      [
        "k",
        "now"
      ],
      [
        "m",
        "a"
      ],
      [
        "is",
        "e"
      ],
      [
        "out",
        "side"
      ],
      [
        "t",
        "e"
      ],
      [
        "to",
        "ys"
      ],
      [
        "o",
        "ld"
      ],
      [
        "tre",
        "e"
      ],
      [
        "i",
        "ve"
      ],
      [
        "en",
        "ed"
      ],
      [
        "th",
        "ought"
      ],
      [
        "le",
        "arn"
      ],
      [
        "fo",
        "re"
      ],
      [
        "w",
        "h"
      ],
      [
        "u",
        "st"
      ],
      [
        "t",
        "y"
      ],
      [
        "spe",
        "ci"
      ],
      [
        "speci",
        "al"
      ],
      [
        "ro",
        "om"
      ],
      [
        "s",
        "or"
      ],
      [
        "c",
        "at"
      ],
      [
        "W",
        "hen"
      ],
      [
        "la",
        "ug"
      ],
      [
        "k",
        "new"
      ],
      [
        "J",
        "o"
      ],
      [
        "an",
        "y"
      ],
      [
        "b",
        "all"
      ],
      [
        "udd",
        "en"
      ],
      [
        "ne",
        "ver"
      ],
      [
        "r",
        "un"
      ],
      [
        "g",
        "ed"
      ],
      [
        "r",
        "ed"
      ],
      [
        "b",
        "u"
      ],
      [
        "H",
        "er"
      ],
      [
        "f",
        "ter"
      ],
      [
        "is",
        "h"
      ],
      [
        "p",
        "a"
      ],
      [
        "c",
        "ome"
      ],
      [
        "h",
        "ouse"
      ],
      [
        "h",
        "ow"
      ],
      [
        "E",
        "very"
      ],
      [
        "to",
        "y"
      ],
      [
        "b",
        "r"
      ],
      [
        "udden",
        "ly"
      ],
      [
        "o",
        "l"
      ],
      [
        "sh",
        "ow"
      ],
      [
        "in",
        "k"
      ],
      [
        "mu",
        "ch"
      ],
      [
        "l",
        "f"
      ],
      [
        "J",
        "ack"
      ],
      [
        "r",
        "d"
      ],
      [
        "s",
        "w"
      ],
      [
        "d",
        "re"
      ],
      [
        "b",
        "l"
      ],
      [
        "c",
        "re"
      ],
      [
        "is",
        "t"
      ],
      [
        "ab",
        "le"
      ],
      [
        "v",
        "en"
      ],
      [
        "care",
        "ful"
      ],
      [
        "s",
        "k"
      ],
      [
        "sor",
        "ry"
      ],
      [
        "c",
        "le"
      ],
      [
        "h",
        "and"
      ],
      [
        "g",
        "ave"
      ],
      [
        "i",
        "a"
      ],
      [
        "l",
        "ong"
      ],
      [
        "s",
        "un"
      ],
      [
        "in",
        "to"
      ],
      [
        "wa",
        "ter"
      ],
      [
        "t",
        "ried"
      ],
      [
        "in",
        "side"
      ],
      [
        "to",
        "ld"
      ],
      [
        "could",
        "n"
      ],
      [
        "pr",
        "oud"
      ],
      [
        "bo",
        "x"
      ],
      [
        "t",
        "a"
      ],
      [
        "c",
        "l"
      ],
      [
        "o",
        "ver"
      ],
      [
        "t",
        "ter"
      ],
      [
        "he",
        "ard"
      ],
      [
        "e",
        "at"
      ],
      [
        "d",
        "y"
      ],
      [
        "e",
        "ar"
      ],
      [
        "ca",
        "use"
      ],
      [
        "The",
        "n"
      ],
      [
        "g",
        "re"
      ],
      [
        "lo",
        "ve"
      ],
      [
        "S",
        "uddenly"
      ],
      [
        "e",
        "ach"
      ],
      [
        "play",
        "ed"
      ],
      [
        "um",
        "p"
      ],
      [
        "th",
        "is"
      ],
      [
        "p",
        "ick"
      ],
      [
        "i",
        "on"
      ],
      [
        "s",
        "p"
      ],
      [
        "l",
        "ed"
      ],
      [
        "F",
        "rom"
      ],
      [
        "un",
        "t"
      ],
      [
        "pre",
        "t"
      ],
      [
        "ri",
        "ght"
      ],
      [
        "c",
        "om"
      ],
      [
        "c",
        "t"
      ],
      [
        "j",
        "ust"
      ],
      [
        "L",
        "et"
      ],
      [
        "be",
        "cause"
      ],
      [
        "hug",
        "ged"
      ],
      [
        "wa",
        "t"
      ],
      [
        "M",
        "ia"
      ],
      [
        "of",
        "f"
      ],
      [
        "c",
        "he"
      ],
      [
        "H",
        "is"
      ],
      [
        "n",
        "ice"
      ],
      [
        "il",
        "e"
      ],
      [
        "A",
        "nd"
      ],
      [
        "f",
        "ly"
      ],
      [
        "ne",
        "ed"
      ],
      [
        "f",
        "low"
      ],
      [
        "u",
        "c"
      ],
      [
        "ex",
        "p"
      ],
      [
        "man",
        "y"
      ],
      [
        "t",
        "ry"
      ],
      [
        "sm",
        "all"
      ],
      [
        "i",
        "z"
      ],
      [
        "po",
        "t"
      ],
      [
        "sh",
        "in"
      ],
      [
        "ou",
        "g"
      ],
      [
        "be",
        "ar"
      ],
      [
        "v",
        "ing"
      ],
      [
        "oug",
        "h"
      ],
      [
        "re",
        "ad"
      ],
      [
        "l",
        "ad"
      ],
      [
        "u",
        "ck"
      ],
      [
        "im",
        "al"
      ],
      [
        "an",
        "imal"
      ],
      [
        "b",
        "er"
      ],
      [
        "unt",
        "il"
      ],
      [
        "ra",
        "bb"
      ],
      [
        "T",
        "hat"
      ],
      [
        "se",
        "lf"
      ],
      [
        "it",
        "s"
      ],
      [
        "ke",
        "t"
      ],
      [
        "learn",
        "ed"
      ],
      [
        "b",
        "ed"
      ],
      [
        "be",
        "a"
      ],
      [
        "fa",
        "st"
      ],
      [
        "be",
        "tter"
      ],
      [
        "p",
        "er"
      ],
      [
        "k",
        "ind"
      ],
      [
        "v",
        "ent"
      ],
      [
        "c",
        "all"
      ],
      [
        "ur",
        "n"
      ],
      [
        "as",
        "s"
      ],
      [
        "w",
        "here"
      ],
      [
        "b",
        "ra"
      ],
      [
        "be",
        "st"
      ],
      [
        "exp",
        "lo"
      ],
      [
        "bea",
        "ut"
      ],
      [
        "than",
        "ked"
      ],
      [
        "f",
        "i"
      ],
      [
        "e",
        "ven"
      ],
      [
        "sk",
        "y"
      ],
      [
        "p",
        "t"
      ],
      [
        "g",
        "ard"
      ],
      [
        "gard",
        "en"
      ],
      [
        "f",
        "le"
      ],
      [
        "h",
        "ur"
      ],
      [
        "sa",
        "fe"
      ],
      [
        "sa",
        "y"
      ],
      [
        "d",
        "on"
      ],
      [
        "laug",
        "hed"
      ],
      [
        "f",
        "in"
      ],
      [
        "a",
        "ce"
      ],
      [
        "j",
        "ump"
      ],
      [
        "lo",
        "ts"
      ],
      [
        "y",
        "es"
      ],
      [
        "W",
        "hat"
      ],
      [
        "l",
        "oud"
      ],
      [
        "s",
        "ur"
      ],
      [
        "Y",
        "es"
      ],
      [
        "Mom",
        "my"
      ],
      [
        "r",
        "ong"
      ],
      [
        "n",
        "t"
      ],
      [
        "un",
        "der"
      ],
      [
        "jo",
        "y"
      ],
      [
        "i",
        "ful"
      ],
      [
        "f",
        "am"
      ],
      [
        "le",
        "t"
      ],
      [
        "beaut",
        "iful"
      ],
      [
        "c",
        "hed"
      ],
      [
        "st",
        "ill"
      ],
      [
        "g",
        "ive"
      ],
      [
        "ra",
        "in"
      ],
      [
        "an",
        "k"
      ],
      [
        "l",
        "ist"
      ],
      [
        "am",
        "a"
      ],
      [
        "animal",
        "s"
      ],
      [
        "Jo",
        "h"
      ],
      [
        "el",
        "l"
      ],
      [
        "Joh",
        "n"
      ],
      [
        "n",
        "ing"
      ],
      [
        "st",
        "ay"
      ],
      [
        "C",
        "an"
      ],
      [
        "t",
        "urn"
      ],
      [
        "w",
        "on"
      ],
      [
        "re",
        "e"
      ],
      [
        "bo",
        "ok"
      ],
      [
        "op",
        "le"
      ],
      [
        "p",
        "u"
      ],
      [
        "bo",
        "th"
      ],
      [
        "b",
        "le"
      ],
      [
        "ha",
        "rd"
      ],
      [
        "li",
        "ved"
      ],
      [
        "bra",
        "ve"
      ],
      [
        "b",
        "ad"
      ],
      [
        "t",
        "wo"
      ],
      [
        "A",
        "s"
      ],
      [
        "gr",
        "ound"
      ],
      [
        "o",
        "b"
      ],
      [
        "ke",
        "ep"
      ],
      [
        "T",
        "h"
      ],
      [
        "fam",
        "ily"
      ],
      [
        "ha",
        "s"
      ],
      [
        "A",
        "fter"
      ],
      [
        "is",
        "hed"
      ],
      [
        "t",
        "ru"
      ],
      [
        "ck",
        "s"
      ],
      [
        "pe",
        "ople"
      ],
      [
        "fle",
        "w"
      ],
      [
        "a",
        "pp"
      ],
      [
        "N",
        "o"
      ],
      [
        "hur",
        "t"
      ],
      [
        "ig",
        "h"
      ],
      [
        "r",
        "m"
      ],
      [
        "sur",
        "pr"
      ],
      [
        "ke",
        "pt"
      ],
      [
        "L",
        "uc"
      ],
      [
        "wal",
        "ked"
      ],
      [
        "Luc",
        "y"
      ],
      [
        "in",
        "e"
      ],
      [
        "or",
        "t"
      ],
      [
        "le",
        "a"
      ],
      [
        "Th",
        "ank"
      ],
      [
        "call",
        "ed"
      ],
      [
        "so",
        "on"
      ],
      [
        "re",
        "al"
      ],
      [
        "sh",
        "ould"
      ],
      [
        "c",
        "on"
      ],
      [
        "ar",
        "m"
      ],
      [
        "p",
        "ic"
      ],
      [
        "ang",
        "ry"
      ],
      [
        "is",
        "ed"
      ],
      [
        "sh",
        "o"
      ],
      [
        "do",
        "or"
      ],
      [
        "sha",
        "re"
      ],
      [
        "an",
        "e"
      ],
      [
        "D",
        "ad"
      ],
      [
        "t",
        "ing"
      ],
      [
        "go",
        "ing"
      ],
      [
        "im",
        "p"
      ],
      [
        "clo",
        "s"
      ],
      [
        "cle",
        "an"
      ],
      [
        "s",
        "l"
      ],
      [
        "op",
        "ened"
      ],
      [
        "um",
        "my"
      ],
      [
        "do",
        "ll"
      ],
      [
        "ad",
        "vent"
      ],
      [
        "pret",
        "ty"
      ],
      [
        "shin",
        "y"
      ],
      [
        "be",
        "fore"
      ],
      [
        "pl",
        "ace"
      ],
      [
        "w",
        "ind"
      ],
      [
        "feel",
        "ing"
      ],
      [
        "b",
        "ro"
      ],
      [
        "st",
        "e"
      ],
      [
        "no",
        "ise"
      ],
      [
        "il",
        "ly"
      ],
      [
        "explo",
        "re"
      ],
      [
        "lo",
        "t"
      ],
      [
        "c",
        "u"
      ],
      [
        "me",
        "m"
      ],
      [
        "il",
        "d"
      ],
      [
        "le",
        "s"
      ],
      [
        "c",
        "ry"
      ],
      [
        "co",
        "lo"
      ],
      [
        "B",
        "ob"
      ],
      [
        "d",
        "ra"
      ],
      [
        "ne",
        "x"
      ],
      [
        "f",
        "ish"
      ],
      [
        "ide",
        "a"
      ],
      [
        "se",
        "t"
      ],
      [
        "li",
        "e"
      ],
      [
        "colo",
        "r"
      ],
      [
        "wh",
        "ile"
      ],
      [
        "al",
        "so"
      ],
      [
        "pick",
        "ed"
      ],
      [
        "nex",
        "t"
      ],
      [
        "th",
        "r"
      ],
      [
        "t",
        "ure"
      ],
      [
        "smil",
        "e"
      ],
      [
        "wal",
        "king"
      ],
      [
        "es",
        "s"
      ],
      [
        "u",
        "ch"
      ],
      [
        "fa",
        "ce"
      ],
      [
        "t",
        "al"
      ],
      [
        "i",
        "ed"
      ],
      [
        "wor",
        "k"
      ],
      [
        "advent",
        "ure"
      ],
      [
        "cl",
        "im"
      ],
      [
        "he",
        "ar"
      ],
      [
        "€",
        "™"
      ],
      [
        "le",
        "ss"
      ],
      [
        "m",
        "or"
      ],
      [
        "ic",
        "ed"
      ],
      [
        "a",
        "k"
      ],
      [
        "as",
        "k"
      ],
      [
        "ar",
        "k"
      ],
      [
        "pic",
        "ture"
      ],
      [
        "L",
        "o"
      ],
      [
        "e",
        "ver"
      ],
      [
        "no",
        "dd"
      ],
      [
        "be",
        "ing"
      ],
      [
        "us",
        "ed"
      ],
      [
        "look",
        "ing"
      ],
      [
        "nodd",
        "ed"
      ],
      [
        "n",
        "ight"
      ],
      [
        "he",
        "ad"
      ],
      [
        "fo",
        "od"
      ],
      [
        "i",
        "es"
      ],
      [
        "mem",
        "ber"
      ],
      [
        "d",
        "if"
      ],
      [
        "ay",
        "be"
      ],
      [
        "sto",
        "pped"
      ],
      [
        "e",
        "yes"
      ],
      [
        "wal",
        "k"
      ],
      [
        "ha",
        "ir"
      ],
      [
        "ug",
        "ht"
      ],
      [
        "a",
        "fter"
      ],
      [
        "th",
        "ink"
      ],
      [
        "en",
        "joy"
[...]
